/* weights & biases */

#include <stdint.h>


// conv weights [shape=(32, 1, 5, 5), qi=-5, qf=21]
int16_t w_conv[] = {
  0xfb85,
  0xf1f3,
  0xe51b,
  0xe99b,
  0xf143,
  0x0c86,
  0x05a5,
  0x07c5,
  0x0c7c,
  0x10d1,
  0x15bb,
  0x1647,
  0x15ec,
  0x116a,
  0x069e,
  0x0026,
  0x0bf5,
  0x1395,
  0x1a40,
  0x1e60,
  0xe35d,
  0xd8d8,
  0xe20f,
  0xdfcd,
  0xdfc1,
  0x2730,
  0x1e66,
  0x0eed,
  0xd564,
  0xedeb,
  0x1b71,
  0x3361,
  0xf1c1,
  0xcc46,
  0xe391,
  0x1e90,
  0x528b,
  0xde71,
  0xd9bd,
  0xde44,
  0x4cea,
  0x0200,
  0xf4f7,
  0xd7c3,
  0xdf56,
  0x25cf,
  0xf4a6,
  0xf219,
  0xe55c,
  0xf331,
  0xd0ff,
  0xf10a,
  0x1045,
  0xf171,
  0x3581,
  0x1869,
  0xdd98,
  0xd2e8,
  0x3a1f,
  0x021c,
  0xf27b,
  0x15ac,
  0x1099,
  0x0755,
  0xe48d,
  0x0e7b,
  0x1fe5,
  0x161f,
  0xe377,
  0xe01d,
  0x11cb,
  0x0241,
  0xff47,
  0xec26,
  0xf9bb,
  0x0e78,
  0x0afd,
  0xf6a5,
  0xd293,
  0x0039,
  0x1cf8,
  0xe682,
  0xc146,
  0x05a1,
  0x324c,
  0xf5c3,
  0xcfd5,
  0x00dc,
  0x00c9,
  0x1e6e,
  0xe197,
  0xde7c,
  0x321b,
  0x3622,
  0xe4c5,
  0xf621,
  0x2415,
  0x0f04,
  0xf911,
  0xf825,
  0x14e1,
  0x0d62,
  0xf805,
  0x0158,
  0xf474,
  0xf2d8,
  0x0ca6,
  0xf1c9,
  0x0ae4,
  0xf8e8,
  0xfc37,
  0x158b,
  0x144e,
  0xe556,
  0x090d,
  0xee65,
  0x1331,
  0x13c9,
  0xe9ff,
  0xf136,
  0xe29f,
  0x0332,
  0x1e3e,
  0xfc22,
  0xfb6d,
  0xf08b,
  0xdf07,
  0xea57,
  0xef92,
  0x0d4f,
  0xfbbb,
  0x1270,
  0x1e7b,
  0x29b8,
  0x1b97,
  0x1bc0,
  0x1ad0,
  0x0053,
  0xe319,
  0xd336,
  0xe793,
  0xe40d,
  0xdcf7,
  0xfc92,
  0x059a,
  0x02b3,
  0x1209,
  0x0d45,
  0x0c57,
  0x0e1a,
  0xfb76,
  0x0eac,
  0x07ae,
  0x0ccd,
  0x04aa,
  0xf3f9,
  0x014b,
  0xfe5d,
  0x054e,
  0xf4f7,
  0xde96,
  0xed68,
  0xf61b,
  0xfdaf,
  0xfc33,
  0xeab7,
  0xdcc5,
  0xc7aa,
  0xb8a7,
  0xc9f7,
  0x2dee,
  0x369b,
  0x2ade,
  0x3f23,
  0x34d6,
  0x30d4,
  0x3782,
  0x1baa,
  0xfbe0,
  0xf000,
  0x29de,
  0x032f,
  0xcd9b,
  0xdaa6,
  0xd666,
  0x294d,
  0xd2e0,
  0xda75,
  0xeb09,
  0x1789,
  0xfebf,
  0xd515,
  0xe6d1,
  0xfcf0,
  0x2482,
  0xd6fb,
  0xe905,
  0x1c67,
  0x2b48,
  0x0465,
  0x111d,
  0xda98,
  0x13c4,
  0xf48c,
  0x1260,
  0x1e69,
  0xdc53,
  0xf1ca,
  0xfa54,
  0x1039,
  0x12bc,
  0xf984,
  0xd952,
  0xff5f,
  0x226c,
  0x01be,
  0x17c1,
  0xd4b4,
  0xe024,
  0x36fc,
  0xed38,
  0x1937,
  0xedaf,
  0xdb9b,
  0x1cf3,
  0xddb9,
  0x41b2,
  0x1596,
  0xfead,
  0xf4ff,
  0xd033,
  0xda12,
  0x4074,
  0x076d,
  0xeaa2,
  0xf3a5,
  0xe636,
  0x1191,
  0x3781,
  0xf78f,
  0xf113,
  0xd25c,
  0xed38,
  0x1890,
  0x18e3,
  0x2099,
  0xed0a,
  0xca7d,
  0xeb52,
  0x12b4,
  0x003f,
  0xfee6,
  0xfa76,
  0x0d34,
  0xf256,
  0xf14e,
  0x0576,
  0xf043,
  0x1e47,
  0xf0e8,
  0x0d6a,
  0x218c,
  0xd6c5,
  0x3dca,
  0xfc3c,
  0xe590,
  0x0808,
  0xbcdc,
  0x38d9,
  0xc7b2,
  0x0335,
  0x004c,
  0xf2b0,
  0x333a,
  0xe9b5,
  0xe11d,
  0xd871,
  0x11a2,
  0xe6d5,
  0xe57d,
  0x228d,
  0xfee8,
  0x2e90,
  0x1e54,
  0x050b,
  0x008c,
  0xe456,
  0x142e,
  0xfecb,
  0xf5df,
  0x12f8,
  0xe58d,
  0x15bd,
  0x0456,
  0xf912,
  0x036d,
  0xee48,
  0x12b4,
  0xfc38,
  0xf143,
  0xdb9e,
  0xe7fa,
  0x078f,
  0x1f65,
  0x1c66,
  0xdc14,
  0xec39,
  0xfbb9,
  0x1e6f,
  0x4a70,
  0xe022,
  0xe026,
  0xe971,
  0x0b71,
  0x277d,
  0xdb76,
  0xe8a4,
  0xea32,
  0x225d,
  0x122b,
  0xe089,
  0xf5a5,
  0xf7b1,
  0x203b,
  0x132f,
  0x0b0d,
  0xfda6,
  0x099e,
  0xf178,
  0xfaea,
  0xf91c,
  0x029e,
  0xf782,
  0x0010,
  0xf5a7,
  0xfd2f,
  0xf47b,
  0xf67d,
  0xfd50,
  0xfff4,
  0xf5e2,
  0xffde,
  0xfd15,
  0xfc97,
  0xfa2f,
  0xf4c5,
  0xfc73,
  0xf424,
  0xfba9,
  0xfaeb,
  0x1d4d,
  0x2903,
  0x2388,
  0x1eff,
  0x2209,
  0x2482,
  0x2799,
  0x2aac,
  0x1cf4,
  0x0413,
  0xea85,
  0xedb6,
  0xf392,
  0xf6e2,
  0x0098,
  0xe383,
  0xca0e,
  0xc94b,
  0xda01,
  0xedc0,
  0xdf41,
  0xf65c,
  0xf632,
  0xf069,
  0xf8d7,
  0x0c80,
  0xf00d,
  0x05b7,
  0x15b3,
  0x02e5,
  0x0dad,
  0xd67a,
  0x18d7,
  0xe9f1,
  0xec37,
  0xff2e,
  0xfdf5,
  0x1153,
  0x0406,
  0x0739,
  0xe74d,
  0x205e,
  0xf83a,
  0xf1e6,
  0x05db,
  0x0502,
  0x0cf9,
  0xe58b,
  0x19c9,
  0xf646,
  0x01a3,
  0x0f0c,
  0x0e3c,
  0xfd53,
  0xf9e7,
  0xc4ac,
  0xb3b7,
  0xde71,
  0x1c5f,
  0x1926,
  0x0c30,
  0xfaf9,
  0xcf8e,
  0xa8c0,
  0xdb18,
  0x361b,
  0x2a93,
  0x1c9d,
  0x06d7,
  0xd9c3,
  0x0be1,
  0x299d,
  0x1c59,
  0x30a4,
  0x1632,
  0x0d78,
  0xf116,
  0xc794,
  0x0b83,
  0x0fb1,
  0xec10,
  0xdba2,
  0x1cba,
  0x1d13,
  0x14d8,
  0xde6e,
  0xf991,
  0x0997,
  0x1913,
  0xf9c6,
  0xcb27,
  0x204e,
  0x0c0d,
  0x24ec,
  0x083c,
  0x379e,
  0x0fe9,
  0x09de,
  0xdf61,
  0xcbac,
  0x1f24,
  0x08ea,
  0x0bd7,
  0x1a6e,
  0x1573,
  0x028a,
  0xd9ce,
  0x0244,
  0xe3d1,
  0xf695,
  0x09b5,
  0xf1dc,
  0x1258,
  0xfffa,
  0xeed3,
  0xec17,
  0xe6d0,
  0x05cb,
  0xf50e,
  0xdcba,
  0x06ee,
  0xfc89,
  0x1ec5,
  0x1771,
  0xfde0,
  0x146c,
  0x023a,
  0x0393,
  0x0525,
  0xda6a,
  0xec4d,
  0x06c0,
  0xf0ee,
  0xf460,
  0x2e53,
  0xdbf4,
  0xd06c,
  0x1645,
  0x324a,
  0x0909,
  0x276b,
  0x0f40,
  0x023f,
  0xd84e,
  0xee6e,
  0x0143,
  0x1688,
  0xf3e8,
  0xf9d7,
  0xfe6d,
  0xef89,
  0xf820,
  0xff56,
  0xfc18,
  0x0d54,
  0xfe06,
  0xf38a,
  0xf507,
  0xf55c,
  0x008a,
  0x05ff,
  0xf21c,
  0xf5be,
  0xefa6,
  0x088e,
  0xf7b5,
  0xf9f9,
  0xf10a,
  0xf398,
  0xfb60,
  0x0072,
  0xec1a,
  0xf8b2,
  0xfc57,
  0xf9bf,
  0xdf6f,
  0x2080,
  0x00bd,
  0xdc97,
  0x1758,
  0xe4b6,
  0x3cd2,
  0x05a5,
  0xcd92,
  0x11ab,
  0xd6a0,
  0x2267,
  0x0921,
  0xde42,
  0x235d,
  0xfd38,
  0xe6bf,
  0x0cf5,
  0xe160,
  0xf692,
  0x17a2,
  0xec98,
  0x2c89,
  0xf150,
  0x12f6,
  0x04ac,
  0xf29c,
  0x0be8,
  0xfb0e,
  0x0168,
  0xfe85,
  0x0d67,
  0xe315,
  0x1a67,
  0xf569,
  0xe566,
  0x0760,
  0x1cdc,
  0xe2a7,
  0x01ba,
  0x0b04,
  0xe1f2,
  0xf081,
  0x176c,
  0x047d,
  0x2153,
  0xfb51,
  0xf2a2,
  0xeed9,
  0x03ca,
  0xecfd,
  0xfa00,
  0xef2d,
  0xeeed,
  0xe905,
  0x1412,
  0x041e,
  0xf94f,
  0x1c33,
  0x0d4d,
  0xfaa5,
  0xf23a,
  0x04d9,
  0x05c4,
  0x1050,
  0x1651,
  0x149e,
  0x0d87,
  0x0b0e,
  0x0d58,
  0x13a5,
  0xf8b5,
  0xf52e,
  0x0f06,
  0x04ab,
  0x036c,
  0x05a7,
  0x0cfb,
  0x093d,
  0xe12e,
  0xdcc0,
  0x04f5,
  0x0330,
  0xfbfa,
  0x1308,
  0xe9e5,
  0xf16d,
  0xdf97,
  0xec78,
  0xdbd5,
  0x29ae,
  0x2bfd,
  0x1bd5,
  0x3092,
  0x1da4,
  0xe951,
  0xee76,
  0xeeae,
  0xf07e,
  0x0660,
  0x1fd1,
  0x1fb4,
  0x1e20,
  0x213e,
  0x3c29,
  0xff71,
  0xf27c,
  0xe37c,
  0xd524,
  0xce45,
  0xe0d1,
  0xe779,
  0xe986,
  0xd8a7,
  0xe337,
  0xfb41,
  0x02c4,
  0x13de,
  0x3386,
  0x15b1,
  0x0ea4,
  0x07df,
  0x02cf,
  0xe7ea,
  0xfa32,
  0xff6a,
  0x0085,
  0xf531,
  0x0e33,
  0xf3ae,
  0x09ac,
  0xeb9b,
  0x2bb1,
  0xe649,
  0x02f6,
  0xe743,
  0x218b,
  0xfca3,
  0xdd3c,
  0x17e9,
  0xf657,
  0x17ae,
  0xefd7,
  0xea2b,
  0x0e52,
  0x177a,
  0xe750,
  0xeed0,
  0x17c4,
  0xfcfe,
  0xf2ed,
  0xe7e0,
  0x0250,
  0x1be5,
  0x056f,
  0x1474,
  0x2d14,
  0xef17,
  0xd7fb,
  0xf6ba,
  0x141d,
  0x3122,
  0x0e23,
  0xd9ee,
  0xcfb3,
  0x004b,
  0xe9a1,
  0xf8db,
  0x163c,
  0x043f,
  0xdee8,
  0xe910,
  0xf34d,
  0x143d,
  0x2d86,
  0xeb44,
  0xef38,
  0x0341,
  0x234f,
  0xe73d,
  0xea62,
  0x0948,
  0x28a5,
  0x17fe,
  0xe4f4,
  0xebaf,
  0x062a,
  0x1fe4,
  0xef61,
  0xeccb,
  0x007e,
  0x1664,
  0x0b47,
  0xf13a,
  0xf97b,
  0x0bc5,
  0x1897,
  0xf3c7,
  0xf286,
  0x01a2,
  0x1c87,
  0xe4a5,
  0xf2bc,
  0x0cfa,
  0xf57d,
  0x2306,
  0xfbef,
  0xfdb0,
  0xf61b,
  0x0565,
  0x0df6,
  0xfaba,
  0xf14e,
  0x0593,
  0xfd46,
  0xf981,
  0xf922,
  0xfd20,
  0xffcc,
  0xe6d9,
  0x1539,
  0x0cd0,
  0x0ad3,
  0x022d,
  0xf861,
  0x1d94,
  0x1d66,
  0xf398,
  0xcf86,
  0xf9f4,
  0xfd4c,
  0x3a3f,
  0x246a,
  0xf999,
  0xe13f,
  0xd6d8,
  0xe721,
  0x0dbe,
  0x1084,
  0xdee0,
  0xf04a,
  0xf4b1,
  0x17e7,
  0x2563,
  0xf87a,
  0xe6a3,
  0xdcb5,
  0xf162,
  0x1a5a,
  0x2932,
  0x0609,
  0x0361,
  0xfdfa,
  0xe2fc,
  0xecee,
  0x0ebc,
  0x147b,
  0x0515,
  0xee72,
  0xeab5,
  0xf9e9,
  0xe158,
  0xdd45,
  0x0aa7,
  0x10b4,
  0xce3b,
  0xd7f5,
  0xfdd5,
  0x279c,
  0x2e5d,
  0x137f,
  0x22d5,
  0x1318,
  0xf698,
  0xe553
};

// conv bias [shape=(32,), qi=5, qf=11]
int16_t b_conv[] = {
  0x0015,
  0xfde9,
  0xfe85,
  0xfef0,
  0x0014,
  0xfe30,
  0xffaf,
  0xff7d,
  0x00e0,
  0xfe12,
  0xffd8,
  0xfdf5,
  0xfdb2,
  0x02e8,
  0xffb1,
  0xfe1c,
  0xff0f,
  0xfdea,
  0xfc2e,
  0xff6a,
  0x1094,
  0xfe34,
  0x0026,
  0xf734,
  0xfe11,
  0xfe5b,
  0x0000,
  0xff6a,
  0xffac,
  0x0189,
  0xfc87,
  0x079f
};


// layer1.conv1 weights [shape=(32, 32, 3, 3), qi=0, qf=16]
int16_t w_layer1_conv1[] = {
  0x0000,
  0x0002,
  0xffff,
  0x0001,
  0xfffd,
  0x0003,
  0x0001,
  0xfffe,
  0xffff,
  0x0002,
  0x0002,
  0x0000,
  0x0000,
  0x0002,
  0x0002,
  0x0000,
  0x0000,
  0xffff,
  0x0003,
  0x0001,
  0x0002,
  0x0001,
  0x0002,
  0x0000,
  0x0002,
  0x0002,
  0x0002,
  0x0002,
  0xffff,
  0x0000,
  0x0001,
  0xffff,
  0x0001,
  0xffff,
  0x0001,
  0x0002,
  0x0000,
  0xffff,
  0x0003,
  0x0000,
  0x0000,
  0x0000,
  0x0000,
  0x0001,
  0x0002,
  0x0000,
  0x0002,
  0x0002,
  0x0001,
  0x0002,
  0x0000,
  0xffff,
  0xfffe,
  0x0002,
  0xfffe,
  0xfffe,
  0x0000,
  0xffff,
  0xffff,
  0xffff,
  0xffff,
  0xffff,
  0x0001,
  0x0002,
  0x0001,
  0xfffe,
  0x0000,
  0x0000,
  0x0003,
  0x0000,
  0x0000,
  0x0002,
  0xffff,
  0x0002,
  0x0001,
  0x0001,
  0x0003,
  0xffff,
  0x0001,
  0xffff,
  0xffff,
  0xfffe,
  0x0000,
  0xfffe,
  0xfffe,
  0x0000,
  0x0001,
  0x0001,
  0x0000,
  0xffff,
  0x0003,
  0xffff,
  0x0000,
  0x0003,
  0x0000,
  0xffff,
  0xffff,
  0xfffe,
  0x0000,
  0x0002,
  0x0001,
  0xfffe,
  0x0001,
  0xffff,
  0xffff,
  0x0000,
  0x0000,
  0xffff,
  0x0002,
  0xffff,
  0xfffe,
  0xffff,
  0xfffe,
  0x0000,
  0x0002,
  0x0000,
  0x0000,
  0xffff,
  0xfffe,
  0x0001,
  0x0000,
  0xfffd,
  0x0002,
  0x0000,
  0xfffe,
  0xfffe,
  0x0000,
  0x0001,
  0x0000,
  0x0002,
  0x0003,
  0x0002,
  0xfffe,
  0xfffe,
  0xffff,
  0x0001,
  0xfffe,
  0x0001,
  0xffff,
  0x0001,
  0x0002,
  0x0001,
  0x0001,
  0x0003,
  0xffff,
  0x0001,
  0xffff,
  0xffff,
  0x0001,
  0xffff,
  0x0000,
  0xffff,
  0x0001,
  0x0001,
  0x0001,
  0xfffe,
  0x0003,
  0x0002,
  0x0000,
  0xfffe,
  0xfffe,
  0x0003,
  0x0002,
  0xfffe,
  0x0000,
  0x0002,
  0x0001,
  0xffff,
  0x0001,
  0x0002,
  0x0002,
  0x0002,
  0x0000,
  0xffff,
  0xffff,
  0x0002,
  0x0001,
  0x0002,
  0xffff,
  0xfffe,
  0xfffd,
  0xffff,
  0x0001,
  0x0000,
  0x0000,
  0x0002,
  0x0000,
  0x0002,
  0x0002,
  0x0000,
  0x0001,
  0x0002,
  0xffff,
  0x0000,
  0x0000,
  0x0001,
  0x0003,
  0x0000,
  0x0001,
  0x0000,
  0xfffe,
  0xffff,
  0xffff,
  0x0001,
  0x0002,
  0xffff,
  0x0002,
  0x0000,
  0x0002,
  0xffff,
  0x0002,
  0xfffe,
  0xffff,
  0xfffe,
  0xffff,
  0x0000,
  0x0001,
  0x0001,
  0x0001,
  0x0003,
  0xfffe,
  0x0000,
  0xffff,
  0x0000,
  0x0000,
  0x0002,
  0x0002,
  0xfffe,
  0xffff,
  0xffff,
  0x0003,
  0x0000,
  0x0002,
  0x0000,
  0x0000,
  0x0001,
  0x0002,
  0x0000,
  0xfffe,
  0xfffe,
  0x0001,
  0x0000,
  0x0002,
  0x0002,
  0x0000,
  0xfffe,
  0x0000,
  0xffff,
  0xfffe,
  0xffff,
  0xfffe,
  0xffff,
  0xfffe,
  0x0000,
  0x0002,
  0x0003,
  0x0001,
  0xfffe,
  0xffff,
  0xffff,
  0x0003,
  0x0002,
  0xfffe,
  0x0001,
  0x0003,
  0x0001,
  0x0001,
  0x0000,
  0xffff,
  0x0000,
  0x0003,
  0x0000,
  0x0001,
  0xfffe,
  0xffff,
  0xffff,
  0xfffe,
  0xffff,
  0x0003,
  0xffff,
  0x0002,
  0x0000,
  0x0000,
  0xfffe,
  0x0002,
  0x0002,
  0x0001,
  0x0000,
  0x1ccc,
  0xf721,
  0xf313,
  0x2886,
  0x022c,
  0xee28,
  0xee1b,
  0xf71f,
  0x008a,
  0xde44,
  0x0d62,
  0x18e7,
  0xbacc,
  0x2c34,
  0x1953,
  0xda94,
  0x1216,
  0x089e,
  0xf2ba,
  0x184a,
  0x03a9,
  0xf1c6,
  0x07d6,
  0xfbb1,
  0x0300,
  0x1527,
  0xfa7f,
  0x0dc9,
  0xf5ef,
  0x1474,
  0xd0f6,
  0xf3b0,
  0xf90f,
  0xf95c,
  0xecb9,
  0xfbe0,
  0xd9f0,
  0x06ed,
  0x189f,
  0xc85e,
  0x1857,
  0x2ec9,
  0xe278,
  0x0147,
  0x1e96,
  0x065a,
  0x010b,
  0xf7ae,
  0xf587,
  0xe5ac,
  0xfa82,
  0x0f2c,
  0x01bb,
  0xf39c,
  0x1e23,
  0xde5e,
  0xdb2f,
  0x13d8,
  0xd1e6,
  0xf691,
  0x0861,
  0xeb78,
  0x08c7,
  0xe6d6,
  0x1672,
  0x0cc5,
  0xe5f2,
  0x1932,
  0x0020,
  0xfb66,
  0x1fa6,
  0xff3d,
  0xf032,
  0xee30,
  0x06b6,
  0xc94e,
  0x0d1c,
  0x177a,
  0xc771,
  0x1496,
  0x1a69,
  0x2428,
  0xf2de,
  0xec0d,
  0xec87,
  0xdd4a,
  0xefa5,
  0x05b1,
  0xf5d4,
  0x1c92,
  0x0a66,
  0xef73,
  0xecbe,
  0x0cac,
  0x06cf,
  0x0418,
  0x03f8,
  0xf758,
  0xf017,
  0x19ab,
  0xf889,
  0xe7de,
  0x09cc,
  0xfca6,
  0xf064,
  0x1bcd,
  0xf395,
  0xef5d,
  0xfb07,
  0xec8f,
  0x0822,
  0xe5cb,
  0xe57f,
  0x03d4,
  0xf20f,
  0xe47c,
  0xfb4f,
  0xddb4,
  0xfa03,
  0x2f4e,
  0xd660,
  0xe92e,
  0x3caf,
  0xd70e,
  0xee75,
  0x1571,
  0x07c0,
  0x07e7,
  0x0e6c,
  0x05c9,
  0xf772,
  0xf4e4,
  0x08ea,
  0x08ce,
  0xf49d,
  0xeeb5,
  0xf18a,
  0xe64a,
  0x0521,
  0x015c,
  0xf924,
  0x087e,
  0xed06,
  0xff51,
  0x0981,
  0x0cec,
  0x0729,
  0xf757,
  0x0737,
  0xfea5,
  0xf05a,
  0xff10,
  0x21c0,
  0xf94d,
  0xfb27,
  0x07b0,
  0xe530,
  0xec29,
  0xf9b2,
  0xf2e2,
  0xf8af,
  0xf707,
  0x1975,
  0xf555,
  0xf8d8,
  0x15bc,
  0xf4b1,
  0x0b8b,
  0x171b,
  0x0c6b,
  0xfd26,
  0xe0b5,
  0x018f,
  0x12b6,
  0xe1fb,
  0x0aba,
  0x0983,
  0xfa3f,
  0xf0bd,
  0x01bb,
  0xec45,
  0xf280,
  0x20e2,
  0xf3eb,
  0xf92a,
  0x3973,
  0xf8b1,
  0xf90b,
  0x0f0d,
  0xfaf8,
  0xeb86,
  0xe912,
  0xf7df,
  0xfa17,
  0xfcb0,
  0x0654,
  0xff27,
  0x0dcd,
  0xe3cd,
  0x3315,
  0x0a7f,
  0xe1c4,
  0x220c,
  0x20a8,
  0xea66,
  0x0b45,
  0x27ff,
  0xfa60,
  0xf6d6,
  0xe31c,
  0x0345,
  0xeea5,
  0xe9d7,
  0x076a,
  0x0a6b,
  0x0770,
  0x145d,
  0x12aa,
  0xea56,
  0x0fe5,
  0x11ab,
  0xe204,
  0x1815,
  0x0e08,
  0xef01,
  0xef45,
  0xdd5f,
  0xe91e,
  0x039f,
  0xd9e0,
  0xdf57,
  0x1f71,
  0xde3f,
  0xf03b,
  0xf77b,
  0x0dac,
  0xfcc4,
  0xcb5b,
  0x18fb,
  0x2695,
  0xf53b,
  0xfb84,
  0xfa11,
  0xfcf5,
  0x1347,
  0xfeb0,
  0xd013,
  0x018c,
  0x0762,
  0xfe49,
  0xffc3,
  0x0514,
  0xe591,
  0x1488,
  0x1c04,
  0xe283,
  0x16ff,
  0x0fb1,
  0xe7d3,
  0x0110,
  0xfa5e,
  0xd6e9,
  0x25e4,
  0x1f85,
  0xc53a,
  0x1fc4,
  0x1972,
  0xe113,
  0x18c9,
  0x1371,
  0x075a,
  0x0f74,
  0xff0b,
  0x0129,
  0x1305,
  0x0939,
  0x0416,
  0x1d8c,
  0x170f,
  0xf58a,
  0xf838,
  0x1b34,
  0xe6e0,
  0xdd8b,
  0x1f36,
  0xf1fa,
  0xf7df,
  0x147e,
  0x090c,
  0xf96e,
  0xff52,
  0x04c0,
  0x0728,
  0xffc5,
  0xdf89,
  0xe780,
  0xfadb,
  0x23b3,
  0x12db,
  0x05e1,
  0x0f6d,
  0x0f44,
  0x09d0,
  0xfb60,
  0x0470,
  0x0a12,
  0xff30,
  0xf7ee,
  0xfe17,
  0xfee4,
  0x0333,
  0x0369,
  0x02ae,
  0xf7e5,
  0xfb33,
  0xf789,
  0x0214,
  0x07f8,
  0x1045,
  0x1b37,
  0x0abc,
  0xff8c,
  0xf845,
  0xee9e,
  0x0181,
  0x0668,
  0x02a9,
  0x16c9,
  0x0d40,
  0x0ce1,
  0xed52,
  0xee4c,
  0xedf5,
  0xf06c,
  0xf5ad,
  0x07f9,
  0xfe18,
  0x054c,
  0x0aa8,
  0x026b,
  0xf598,
  0xe83d,
  0xf74f,
  0xfa3a,
  0x024d,
  0xfd56,
  0xe5bf,
  0xf4f8,
  0x0082,
  0xf061,
  0xfd94,
  0x11ef,
  0x0794,
  0xfea0,
  0x0b00,
  0x1450,
  0x0ef0,
  0xf075,
  0x0565,
  0xfd17,
  0x0456,
  0x03b2,
  0x093e,
  0xf78d,
  0x0067,
  0xf6a9,
  0xcd9d,
  0xd199,
  0xd740,
  0xf6b2,
  0xfb27,
  0x12b3,
  0x0953,
  0xfc3f,
  0x0872,
  0x00b3,
  0xebea,
  0xdc70,
  0x040f,
  0xfa7b,
  0xef85,
  0xf317,
  0xfaed,
  0xff65,
  0xf32a,
  0xe697,
  0xeddb,
  0x0797,
  0x05cf,
  0x0b9b,
  0xf527,
  0xf005,
  0x050e,
  0xed72,
  0xfb0c,
  0xf31f,
  0xfce9,
  0x0e29,
  0x129e,
  0x12cd,
  0x0896,
  0x0809,
  0xe9cf,
  0xd2b6,
  0xe05b,
  0x16e1,
  0x2147,
  0x205a,
  0xea20,
  0xd9d7,
  0xeec2,
  0xd7da,
  0xc1f2,
  0xda34,
  0xf523,
  0xe8c3,
  0xf266,
  0x0d3e,
  0x2390,
  0x29b7,
  0xe567,
  0xf1e4,
  0xef8e,
  0x0665,
  0xf74e,
  0x05a2,
  0x0b8d,
  0xe8c3,
  0xe9e5,
  0x101a,
  0x0691,
  0x00ef,
  0xfa42,
  0xfa0a,
  0xf0ca,
  0xef48,
  0xf786,
  0xf295,
  0xf2d4,
  0x073d,
  0x03b1,
  0xf01c,
  0xfd5d,
  0xfb38,
  0x0ad2,
  0x1340,
  0x0b5c,
  0xf5b1,
  0xda3e,
  0xf4bd,
  0x0378,
  0xed99,
  0xe29c,
  0x1041,
  0x0474,
  0x079e,
  0x0ae0,
  0x1cbc,
  0x139d,
  0xf241,
  0x03e6,
  0xf473,
  0xf1fb,
  0x1531,
  0x0024,
  0xfd04,
  0xf4ba,
  0xf834,
  0x0101,
  0x0b28,
  0x1dab,
  0xfc2c,
  0xf490,
  0x0d37,
  0xfac7,
  0xec91,
  0xff1c,
  0xf170,
  0xf5c3,
  0xfe18,
  0x008e,
  0x03cd,
  0xee25,
  0xf30f,
  0xeea0,
  0xeada,
  0x0621,
  0x07b2,
  0xf58e,
  0xf63d,
  0x0a5a,
  0xf569,
  0xe9b3,
  0xee7f,
  0xe0dc,
  0xfcd0,
  0xf2bb,
  0x0073,
  0x037b,
  0xfd4f,
  0xf1c6,
  0x12a6,
  0x0fce,
  0x07a4,
  0xee78,
  0xf385,
  0xf9a7,
  0x0397,
  0x0736,
  0xff1b,
  0x07af,
  0xff49,
  0xf18e,
  0xf3ea,
  0xf5be,
  0x0042,
  0x0c8e,
  0x198b,
  0x1c60,
  0xf52a,
  0xfba9,
  0xf063,
  0xff5d,
  0x083e,
  0xfc29,
  0x01a3,
  0x0662,
  0xf58a,
  0x04f2,
  0xf093,
  0xf622,
  0xff8b,
  0x0074,
  0xff3b,
  0xfdfb,
  0x0c7f,
  0x01ca,
  0xfe34,
  0xf765,
  0xf40c,
  0x0042,
  0x0f63,
  0x09f2,
  0xfd6c,
  0x12fe,
  0x1498,
  0xfb76,
  0xe2c9,
  0xfbf3,
  0x1ae4,
  0x0e7e,
  0x0019,
  0x0e0c,
  0x08f4,
  0x0af8,
  0x065d,
  0x045e,
  0x0049,
  0xfc34,
  0xf423,
  0xf19c,
  0x0df0,
  0x1caf,
  0x09ec,
  0xefa2,
  0x051b,
  0xedf3,
  0xf154,
  0xfd15,
  0x098d,
  0xec8f,
  0x08ca,
  0xfe4a,
  0xef16,
  0xece8,
  0xf33e,
  0xf2e4,
  0xce19,
  0xf514,
  0x14c5,
  0x2794,
  0x0811,
  0x0a11,
  0x07fa,
  0x1074,
  0x0d88,
  0x0fc1,
  0x0497,
  0x136f,
  0x1534,
  0x0759,
  0x068a,
  0x1daf,
  0x0df3,
  0x0ae5,
  0xf324,
  0xf96e,
  0xf775,
  0xf614,
  0xedb1,
  0xf061,
  0xdb8e,
  0xe260,
  0x13b6,
  0x0ee6,
  0xfb77,
  0x008e,
  0x0920,
  0xefa0,
  0x0ce0,
  0xedac,
  0xffc5,
  0xefd4,
  0x18af,
  0xfc96,
  0xebe2,
  0x0b66,
  0xefa8,
  0x0714,
  0x0b4e,
  0x07ff,
  0x03c0,
  0x02bd,
  0xfd95,
  0x1a6e,
  0x1a8a,
  0x00d9,
  0xe96a,
  0xf3db,
  0xf4c5,
  0x0079,
  0x0fc6,
  0x0ff0,
  0xfeff,
  0xe931,
  0xdb22,
  0xecca,
  0xefd7,
  0xfd2e,
  0x0f94,
  0x018f,
  0xfa04,
  0xfcb6,
  0x03f8,
  0xf4bd,
  0xf692,
  0xfd68,
  0xf107,
  0x1237,
  0x136f,
  0x1732,
  0xfa13,
  0xfba6,
  0x0814,
  0x034b,
  0x121d,
  0x0a6e,
  0xf5e1,
  0xf77c,
  0x0d14,
  0xe165,
  0xe902,
  0xe8e1,
  0xf558,
  0xf57f,
  0xf945,
  0xfad3,
  0x1336,
  0xfe13,
  0x02a5,
  0x279d,
  0x270a,
  0x0356,
  0x1716,
  0x1bc7,
  0x08b9,
  0x083c,
  0x0ebd,
  0x05dc,
  0x0933,
  0x1eac,
  0xf9ba,
  0x1611,
  0x1c3a,
  0x11a4,
  0x19a0,
  0x151d,
  0x1243,
  0x13c8,
  0x1439,
  0x08d4,
  0x1f11,
  0x1c75,
  0x082b,
  0x047b,
  0xf8ea,
  0xc15a,
  0xdba7,
  0xcd45,
  0x05cd,
  0x07d3,
  0xf916,
  0xdc33,
  0xc58a,
  0xcd4e,
  0xcbcf,
  0xc990,
  0xc0a2,
  0x01e2,
  0xfed2,
  0xfd62,
  0xfc77,
  0xf352,
  0xdff0,
  0xfc55,
  0x0873,
  0xec1e,
  0xf62e,
  0x01bc,
  0xf515,
  0x09b2,
  0x0cf1,
  0xf220,
  0xe854,
  0xe647,
  0xde7d,
  0xfa7c,
  0xe28d,
  0xe4d6,
  0x10ef,
  0x0ee0,
  0x061c,
  0x0b9d,
  0xfaca,
  0xdc9f,
  0x0a0f,
  0x0028,
  0x02a5,
  0x0638,
  0x1260,
  0x0dc5,
  0xf919,
  0x22a3,
  0x125f,
  0xf3ed,
  0xfb31,
  0x0984,
  0x07d7,
  0x02bc,
  0xf75d,
  0xf945,
  0x035f,
  0xd01c,
  0x021a,
  0xfc85,
  0xf3cf,
  0x197c,
  0x15d1,
  0x1bea,
  0xe225,
  0xe7bd,
  0xf11a,
  0x0063,
  0x0887,
  0x13b9,
  0x0d3e,
  0x121d,
  0x0dd8,
  0x084c,
  0x02bc,
  0x0a40,
  0x0949,
  0x1225,
  0xfd26,
  0xf969,
  0xf756,
  0xfa3d,
  0xf8df,
  0xf938,
  0xe6f3,
  0xfd92,
  0x073e,
  0x0255,
  0x0851,
  0x0be0,
  0xfde6,
  0xff2b,
  0x1ae1,
  0x022e,
  0xf97e,
  0xee6b,
  0xf4e2,
  0xfbcc,
  0xff14,
  0xe21d,
  0x11a4,
  0x14e3,
  0xf183,
  0xfc40,
  0xe79b,
  0xeaab,
  0x0190,
  0x0038,
  0xe6f6,
  0xeba6,
  0x0e05,
  0x0c7d,
  0xe679,
  0xdb92,
  0x0520,
  0x1d8e,
  0xed4a,
  0xef29,
  0x0263,
  0xfabe,
  0xd0bd,
  0x0bd2,
  0x0d1e,
  0xf9ce,
  0x0446,
  0xfd26,
  0xfdbd,
  0xe844,
  0xe323,
  0xcab3,
  0xfdf4,
  0xf35d,
  0xe107,
  0x1a71,
  0x1f02,
  0xfc78,
  0x1e36,
  0x0eb8,
  0xf66a,
  0xf28f,
  0xfb74,
  0x04a5,
  0xff7a,
  0x0b52,
  0x01c9,
  0xf001,
  0x1093,
  0x0c01,
  0xeddf,
  0xf5ce,
  0xfa1c,
  0xfd29,
  0xf9f8,
  0x0788,
  0xf50f,
  0xef29,
  0xe826,
  0xef9d,
  0xe357,
  0xe484,
  0x1aae,
  0x1b8d,
  0x0379,
  0xf206,
  0xe61d,
  0xd0a0,
  0xf490,
  0xe5be,
  0xf194,
  0xeef4,
  0xd206,
  0xeb40,
  0x05d8,
  0xfe47,
  0x069d,
  0x1140,
  0xf63d,
  0x0c64,
  0x1132,
  0x175b,
  0x0e31,
  0x4370,
  0x1946,
  0x0d8e,
  0x0cab,
  0xf0bc,
  0x0a89,
  0x20ba,
  0x0a59,
  0xfb5c,
  0x2d93,
  0x0c2f,
  0xfd6b,
  0xff0f,
  0x02ac,
  0xf78b,
  0x062e,
  0x011e,
  0xec6c,
  0x2576,
  0x0599,
  0xf5b7,
  0x0870,
  0x056e,
  0xe141,
  0x0e5b,
  0x0828,
  0xf85f,
  0x29c6,
  0x0a33,
  0x016d,
  0xfe93,
  0xf4d6,
  0xf04f,
  0x0666,
  0xf024,
  0xe5ab,
  0xf332,
  0xff11,
  0x028e,
  0xff97,
  0xef83,
  0xe82a,
  0x0868,
  0xe5d2,
  0xf6c6,
  0xe48c,
  0xf5b3,
  0x0054,
  0xfd2e,
  0xf6ec,
  0xf56d,
  0x03ac,
  0x0f92,
  0xf367,
  0x3484,
  0xfecb,
  0xedff,
  0x16ac,
  0xf60c,
  0xf1ea,
  0x033b,
  0x0bbe,
  0xec33,
  0x30fa,
  0x207f,
  0x0a96,
  0x1607,
  0xfece,
  0xf31a,
  0xebb6,
  0xd97d,
  0xf648,
  0xf4e3,
  0xefec,
  0x0014,
  0xedfe,
  0xed79,
  0xed57,
  0x092d,
  0xf925,
  0xecd9,
  0x1841,
  0xf328,
  0xfe7d,
  0x05da,
  0xfb09,
  0xf8b7,
  0xf7cd,
  0xcfd7,
  0xd49a,
  0x0e98,
  0xeb32,
  0x0080,
  0xe107,
  0xe29c,
  0xfde5,
  0x0a17,
  0xfd8d,
  0xf1ff,
  0x15ad,
  0x0f23,
  0x0d34,
  0x072c,
  0xf7fd,
  0xf284,
  0x0db9,
  0x0f9b,
  0xf60e,
  0x1a57,
  0xfe02,
  0xf840,
  0x0fc4,
  0xfedd,
  0xf1d1,
  0x03fa,
  0x0355,
  0xfdf0,
  0xfebc,
  0xe9b4,
  0xf6e8,
  0x160f,
  0xfe4e,
  0xffe1,
  0x0bee,
  0x0885,
  0xee61,
  0x17c5,
  0x07ba,
  0xeca7,
  0x0204,
  0x0ca1,
  0x1927,
  0xf7f7,
  0xea9a,
  0xfc87,
  0xfa02,
  0xfa4a,
  0xfcad,
  0xfc34,
  0xfd0f,
  0x04a5,
  0x16d9,
  0x0b55,
  0xfaca,
  0x19c6,
  0x18f9,
  0x0122,
  0x0ce5,
  0xf961,
  0xeb4a,
  0x119f,
  0x013c,
  0xeb6b,
  0xfe24,
  0xf3a8,
  0xf71e,
  0xef84,
  0xed9c,
  0xfae4,
  0x0c49,
  0xfba3,
  0x09aa,
  0x0f3c,
  0x0d6b,
  0x017f,
  0xeb9e,
  0xfdd2,
  0x08af,
  0xf704,
  0xffdc,
  0xf80a,
  0xf8a9,
  0xff7c,
  0x0722,
  0xfb20,
  0xfce9,
  0xfc47,
  0x00cd,
  0xefdf,
  0xe1fd,
  0x15ba,
  0xfceb,
  0xfd68,
  0x09e7,
  0xf127,
  0xf4e3,
  0xff62,
  0x048d,
  0x10cd,
  0x0535,
  0xfc3e,
  0xf78d,
  0xf86e,
  0x050c,
  0x01ba,
  0xf824,
  0xe8db,
  0xe5e0,
  0x0765,
  0xf9c6,
  0xeab9,
  0x0ba3,
  0xf5ed,
  0xf487,
  0x0b85,
  0xed3c,
  0x07b1,
  0xf931,
  0xfcb1,
  0x0c5b,
  0xf7e7,
  0x070d,
  0x08f6,
  0xef7d,
  0x0a7d,
  0xf637,
  0xeb2e,
  0xf0d5,
  0xea49,
  0xfbfb,
  0x0d4e,
  0x0cfc,
  0x130c,
  0x1630,
  0xf4da,
  0x3380,
  0x073d,
  0xf8a0,
  0x13c9,
  0xf0d5,
  0xe5db,
  0xfc49,
  0xf76d,
  0xffb8,
  0x19e4,
  0xfb37,
  0xf93f,
  0x0a8f,
  0xfca7,
  0xf9d9,
  0x2bd1,
  0x13f8,
  0x01bb,
  0x4c29,
  0x0f93,
  0xfe6b,
  0x186f,
  0xef46,
  0xf950,
  0x04b8,
  0xfdf8,
  0xed14,
  0x2f10,
  0xf737,
  0xf6c1,
  0x0e91,
  0x06cd,
  0x0029,
  0xebe6,
  0xf476,
  0xfc94,
  0x0ead,
  0x0a5a,
  0xf026,
  0x15bf,
  0xfb93,
  0xf6a4,
  0xfac8,
  0x0b42,
  0x0b25,
  0xfceb,
  0x0503,
  0x050d,
  0x01a9,
  0x01bd,
  0xf3e0,
  0x0512,
  0x161b,
  0x2079,
  0xf846,
  0xee1a,
  0x02da,
  0xf40b,
  0xe5dc,
  0xdf72,
  0xff93,
  0x02a4,
  0x02e7,
  0xfa51,
  0x028e,
  0xf059,
  0x056b,
  0xf817,
  0xfdbd,
  0xfe0b,
  0x15f2,
  0x28cd,
  0x1417,
  0x109b,
  0x1eee,
  0xf339,
  0x0b9e,
  0x12c1,
  0xfc06,
  0x17a6,
  0x1986,
  0x02e3,
  0x0ae7,
  0x1559,
  0x06e9,
  0xf961,
  0xf4bc,
  0x056c,
  0xff97,
  0x0631,
  0x0ca5,
  0xfe1b,
  0xdf3f,
  0x0281,
  0xed3e,
  0xe323,
  0xf7b2,
  0x0919,
  0x17ca,
  0xf24b,
  0x06eb,
  0x2018,
  0xe959,
  0xd38d,
  0xd6e2,
  0xe9e0,
  0xe65a,
  0x08e8,
  0xe0cb,
  0xe71d,
  0xef62,
  0xfaa8,
  0xf7fb,
  0xf4b9,
  0x0d97,
  0x22c8,
  0x1442,
  0x2214,
  0x31e0,
  0x2316,
  0x0320,
  0x02f1,
  0x0c01,
  0xf1f5,
  0xec49,
  0xfbe9,
  0xeb4c,
  0xe91b,
  0xeeac,
  0xfba5,
  0xeff7,
  0xfd74,
  0x0dbd,
  0x0629,
  0x12ec,
  0xf172,
  0xeec3,
  0xfa79,
  0x077d,
  0xfd24,
  0xeb53,
  0xdbbb,
  0xe841,
  0xf279,
  0xd1d0,
  0xd0a4,
  0xe220,
  0x0784,
  0xe67b,
  0xefdf,
  0xd202,
  0xce49,
  0xd8ce,
  0xd4c6,
  0xcadc,
  0xe009,
  0xf7d0,
  0xddff,
  0xdb5e,
  0xff3d,
  0x0607,
  0x0452,
  0xe6b4,
  0xf64e,
  0x039b,
  0xf3ef,
  0xe8c2,
  0xe9b5,
  0x2815,
  0x3cb6,
  0x3c3c,
  0x0d9c,
  0x0edc,
  0x2be8,
  0xeafa,
  0xc9a8,
  0xcbae,
  0x19ec,
  0x353b,
  0x224e,
  0x1339,
  0x2e1e,
  0x3bdf,
  0x18d8,
  0x03ce,
  0xfa97,
  0xf0a0,
  0xfae2,
  0x1193,
  0xfa22,
  0x047a,
  0x0683,
  0x048b,
  0xe1d7,
  0xe3e7,
  0xeef5,
  0xeea3,
  0x0fe5,
  0x0157,
  0x016a,
  0xfe52,
  0x0eda,
  0x0d32,
  0xf4bb,
  0xf982,
  0x2879,
  0x289c,
  0x111d,
  0x0acb,
  0x1577,
  0xf514,
  0xf024,
  0xfde2,
  0xf51b,
  0xf254,
  0xfd2c,
  0xe694,
  0xfa34,
  0x0ca4,
  0x0f90,
  0xf138,
  0xf2db,
  0x05d8,
  0x23b9,
  0x2755,
  0xf8c8,
  0x297c,
  0x2d05,
  0x02ac,
  0xea6a,
  0xfa40,
  0xff06,
  0xfb5c,
  0xfc57,
  0x14d8,
  0xfc4f,
  0x0633,
  0x08c1,
  0xec40,
  0xf113,
  0xeca2,
  0xe47c,
  0xfadf,
  0xd27e,
  0xddf2,
  0xe377,
  0x0335,
  0xeb25,
  0xe2f2,
  0xf509,
  0xfac2,
  0x147e,
  0x0512,
  0xfd14,
  0x070d,
  0x174a,
  0xec2e,
  0xd4ed,
  0xeea4,
  0xf967,
  0x1cdb,
  0xf723,
  0xe9c3,
  0xf4be,
  0x05c4,
  0xe326,
  0xe981,
  0xd161,
  0xee18,
  0x04cc,
  0xf6d5,
  0xdb7b,
  0xd6d2,
  0x0421,
  0xdab7,
  0xf566,
  0x18da,
  0x0fd5,
  0x06f7,
  0x0b08,
  0x18ec,
  0x0be9,
  0xf250,
  0xe000,
  0xf15d,
  0xf028,
  0x0a24,
  0x2870,
  0x061d,
  0xfde0,
  0x113b,
  0x03a4,
  0xf957,
  0xe9ef,
  0x136e,
  0x3191,
  0x281e,
  0x259a,
  0x26f6,
  0x1e78,
  0xfccf,
  0x080e,
  0xf340,
  0xf167,
  0x0ea1,
  0x159a,
  0x0ee3,
  0x08c2,
  0xe7ff,
  0xf26d,
  0xe92e,
  0xf39d,
  0x04bb,
  0xefea,
  0xf4f1,
  0xfea6,
  0xe0e4,
  0xe31f,
  0x1b4c,
  0xfae7,
  0xf0fc,
  0x0dde,
  0xf641,
  0x0afe,
  0xff86,
  0xf5b1,
  0xe4f0,
  0xf818,
  0x0e94,
  0xf375,
  0x118f,
  0x1e64,
  0x2622,
  0x12fd,
  0x06f2,
  0x040d,
  0xf792,
  0xe74d,
  0xf789,
  0xfe09,
  0xcfea,
  0xe5ac,
  0xf900,
  0xf207,
  0xea2a,
  0x2477,
  0x053c,
  0x054c,
  0xfc45,
  0x046c,
  0xfd0b,
  0x0ae0,
  0x065c,
  0xff40,
  0x169b,
  0x10c4,
  0x0433,
  0xee66,
  0xf95a,
  0x081f,
  0x0167,
  0x012d,
  0x10bf,
  0x0767,
  0x084d,
  0x1295,
  0xfc7d,
  0xf2ba,
  0x0461,
  0xffa8,
  0xfe31,
  0x0f80,
  0xf7a6,
  0x069f,
  0x0aa1,
  0x019f,
  0xe675,
  0xe68a,
  0x0c1d,
  0x00b4,
  0xec22,
  0x12a1,
  0x125c,
  0x0116,
  0xe09a,
  0xe4a8,
  0xf69a,
  0x06ff,
  0x0285,
  0xfb6c,
  0x0406,
  0xf48e,
  0x0c63,
  0x0456,
  0xf9ca,
  0xed6c,
  0x13b3,
  0x06e8,
  0x040e,
  0x0211,
  0xf422,
  0x0901,
  0x023c,
  0xead1,
  0xf9e3,
  0xf4f1,
  0xfdd4,
  0x06f5,
  0xec4a,
  0x039e,
  0x0efe,
  0xedb6,
  0xef8f,
  0x095f,
  0xf4be,
  0xf8ca,
  0xfc55,
  0x0b74,
  0x0224,
  0xf35d,
  0xe3f4,
  0xe5cd,
  0x0c48,
  0xeb87,
  0xf0e6,
  0x032b,
  0xe5c5,
  0xf331,
  0xfe8e,
  0xf404,
  0xe782,
  0xf9e3,
  0x04a9,
  0xeb10,
  0xe4b7,
  0x0f52,
  0xfa86,
  0xf44c,
  0xf559,
  0xf0f9,
  0xff17,
  0xff93,
  0xee57,
  0xf54f,
  0x019c,
  0x0018,
  0xf0dd,
  0xf11e,
  0x04b0,
  0x1141,
  0xfead,
  0xf6f5,
  0xfa66,
  0xec4a,
  0xe2cf,
  0xf0d3,
  0x1e86,
  0x29a2,
  0x2d8d,
  0xe96a,
  0xebf0,
  0xfdf7,
  0xc24a,
  0xe2c8,
  0xf13f,
  0xf07b,
  0xce63,
  0xf0b7,
  0x0436,
  0x088f,
  0xedcd,
  0xfb37,
  0x0200,
  0x1659,
  0xec8c,
  0xed6f,
  0x0be3,
  0xf43c,
  0xecd3,
  0xf1a1,
  0xf487,
  0x0b93,
  0xf80a,
  0x0b36,
  0x12be,
  0x0412,
  0x1dfc,
  0x15a7,
  0xfc26,
  0xff55,
  0x0aed,
  0x1320,
  0xfc34,
  0xf746,
  0xf844,
  0xfe10,
  0x06c9,
  0x059c,
  0xfa92,
  0x0cbb,
  0x08b1,
  0xf431,
  0xd879,
  0xfe0e,
  0xfed7,
  0x0d41,
  0xf2e5,
  0xeece,
  0x060b,
  0x0b93,
  0x016e,
  0x03ea,
  0xfe1a,
  0xff29,
  0x01e8,
  0x0a61,
  0xf2c2,
  0x1251,
  0x1832,
  0x268e,
  0x333f,
  0x2dad,
  0xff5a,
  0xef38,
  0xfa9a,
  0xe4c6,
  0xdfe3,
  0xe015,
  0xf321,
  0xfb24,
  0x03a4,
  0x029b,
  0x021e,
  0x00bd,
  0xf75c,
  0x0373,
  0xf8ae,
  0x0fa6,
  0x1570,
  0x14e6,
  0x07cb,
  0xf06d,
  0xf4e3,
  0xf906,
  0xf75a,
  0x01ec,
  0xf37a,
  0xe43d,
  0xe836,
  0x0d76,
  0x054c,
  0xf035,
  0x1429,
  0x1b84,
  0x14b3,
  0xf1aa,
  0xefc8,
  0xf54a,
  0x0064,
  0x01bb,
  0xebbd,
  0x0602,
  0x0128,
  0x04e6,
  0xe432,
  0xd3dd,
  0x0cf8,
  0x15f2,
  0xf6fa,
  0xe2d5,
  0xf766,
  0xf98c,
  0x132a,
  0x0053,
  0xf68e,
  0x06ab,
  0x0363,
  0xfa4f,
  0xfeb1,
  0x025f,
  0x10d0,
  0x018b,
  0x0d75,
  0x0cdb,
  0xfddd,
  0x0841,
  0x0e99,
  0xff33,
  0x0394,
  0x1039,
  0x0ecb,
  0x0879,
  0xef17,
  0xf70d,
  0x07c6,
  0x064d,
  0xfbf3,
  0x0f33,
  0x1a51,
  0xedec,
  0x0668,
  0xf369,
  0xebdb,
  0x2a1c,
  0xffd2,
  0xf265,
  0x1b84,
  0x15b2,
  0x1950,
  0x0501,
  0x0013,
  0x0d11,
  0x1153,
  0x1f3a,
  0x0829,
  0xf18f,
  0x03a7,
  0xfbe2,
  0x18cf,
  0x1bd2,
  0x0c05,
  0x0736,
  0xf162,
  0x039b,
  0xf5f4,
  0x051f,
  0x041d,
  0xf40a,
  0x05ca,
  0xf567,
  0xea53,
  0xfc1b,
  0xff9e,
  0xe430,
  0xe43d,
  0xf5d6,
  0xfe76,
  0x0247,
  0x05d4,
  0x09bb,
  0x0e2c,
  0x135b,
  0xf9a4,
  0x023f,
  0x0fa7,
  0x0c5a,
  0x056a,
  0x053f,
  0xf7a3,
  0x1127,
  0x1bbe,
  0xf6df,
  0xffbc,
  0x07e9,
  0x0ce1,
  0xfd82,
  0xf9dc,
  0xfb6e,
  0x0e1f,
  0x0c0e,
  0xe6d7,
  0xf39c,
  0x08da,
  0xfb2d,
  0x0d5c,
  0x1644,
  0xfe6c,
  0x0b26,
  0x18fd,
  0xe300,
  0xd5f0,
  0xedea,
  0xfcfe,
  0xeb49,
  0xdee7,
  0xf6b9,
  0x07ed,
  0xfd9d,
  0xefcf,
  0xef17,
  0x015d,
  0xe743,
  0xfd0d,
  0xfbb2,
  0xed15,
  0xebd6,
  0x034e,
  0xfba9,
  0xfb8f,
  0xf608,
  0x0837,
  0xfb63,
  0x0355,
  0x10aa,
  0x1146,
  0x0eae,
  0xf320,
  0x0473,
  0xfd1d,
  0x05e8,
  0x0ecf,
  0x0532,
  0xed1c,
  0x038e,
  0x0f17,
  0xe706,
  0xdf14,
  0xfba6,
  0xe2c3,
  0x0e5b,
  0x05f1,
  0xfb41,
  0x1723,
  0x17ec,
  0xf2dd,
  0xdc07,
  0x0363,
  0xf2a7,
  0x0a4a,
  0xf661,
  0x0fa1,
  0x11c5,
  0x0682,
  0xf673,
  0xfcda,
  0xf90c,
  0xfb1c,
  0xec10,
  0xf1ee,
  0xe04e,
  0xef62,
  0x0a60,
  0xfa78,
  0xe813,
  0xfa9d,
  0x01ee,
  0xfd50,
  0xef11,
  0x09c2,
  0x0e97,
  0x161b,
  0xed4a,
  0xe392,
  0x1913,
  0x0664,
  0x020d,
  0x092b,
  0x11bf,
  0x1bd2,
  0x1e7a,
  0xfca7,
  0xfbe7,
  0xffe3,
  0xfc5d,
  0x0e5f,
  0x0e87,
  0x1a6d,
  0x1cea,
  0x1eb2,
  0xef31,
  0xf281,
  0x05c7,
  0xf690,
  0xfc58,
  0xfbf3,
  0x04bd,
  0x1152,
  0x1bef,
  0xfa70,
  0x03da,
  0x0059,
  0xefbb,
  0xe7b6,
  0xe748,
  0xec4e,
  0xf9a4,
  0x07f2,
  0x014f,
  0xfc12,
  0xfa7d,
  0x077e,
  0x0fff,
  0xf2f7,
  0xf8f8,
  0x0884,
  0x02a3,
  0xeb60,
  0xf933,
  0xffee,
  0xeb09,
  0xfecb,
  0x032a,
  0xfb5a,
  0x007d,
  0x01a1,
  0x10e3,
  0x1a70,
  0x0d62,
  0x0141,
  0xfe48,
  0xf05e,
  0xf181,
  0x0195,
  0x0c38,
  0xf9c4,
  0xeb40,
  0x00ef,
  0xfca1,
  0xefda,
  0xe945,
  0x18cb,
  0x10de,
  0x050a,
  0x020d,
  0xf53a,
  0x0a22,
  0xf12d,
  0xfe11,
  0xe186,
  0xfdcb,
  0x021a,
  0x0e77,
  0xf879,
  0xe8b3,
  0xf57b,
  0xf635,
  0x100d,
  0x0f4c,
  0xfa8c,
  0x1026,
  0x0af1,
  0xf2ef,
  0xe1bf,
  0xf777,
  0xf749,
  0xf9c4,
  0xfe02,
  0xe8fb,
  0xf3f5,
  0x0a68,
  0xfe75,
  0xf51b,
  0x0840,
  0x0875,
  0xecd3,
  0xf7fd,
  0xd657,
  0xef21,
  0x02b8,
  0x0e45,
  0x022e,
  0xfb48,
  0x0f6e,
  0x05e8,
  0xef49,
  0x0fd0,
  0x0940,
  0x14b6,
  0xf9f2,
  0x02c6,
  0x01d3,
  0xfa62,
  0x0edc,
  0x0c19,
  0xfd1b,
  0x145d,
  0x0a64,
  0xf273,
  0xff25,
  0xf31a,
  0x068c,
  0x0c5b,
  0x04b4,
  0x0475,
  0x03dd,
  0x1428,
  0xfa70,
  0xeec3,
  0xf5ec,
  0xfbd6,
  0x0e08,
  0xf670,
  0xf8e1,
  0x0fe2,
  0x26a5,
  0xe8ca,
  0xf4f4,
  0xfc41,
  0xe355,
  0xfa0c,
  0xf806,
  0xfc32,
  0x0023,
  0x0653,
  0xf477,
  0xf61d,
  0xeef6,
  0xf4d2,
  0x02db,
  0x0df4,
  0x0548,
  0x1901,
  0x17a4,
  0xf88f,
  0xe5e9,
  0xfc12,
  0xf996,
  0xf684,
  0xf370,
  0x0225,
  0x112f,
  0x0857,
  0xfed9,
  0xf876,
  0xf76a,
  0xf33c,
  0xee49,
  0xfd3b,
  0x01cd,
  0xf879,
  0x0d84,
  0xfcdf,
  0xf10c,
  0x1d0a,
  0xd88a,
  0xed79,
  0xf8b7,
  0x108b,
  0x06c0,
  0x0895,
  0x1c7f,
  0x0e30,
  0xffb9,
  0x165a,
  0x0680,
  0x02db,
  0x1eee,
  0x18fd,
  0x1500,
  0x01c8,
  0xfac0,
  0xfff0,
  0xeb75,
  0x086c,
  0x107e,
  0x03b0,
  0x0fde,
  0xf0dd,
  0x138a,
  0x1e68,
  0xf813,
  0xf4eb,
  0xf5ae,
  0x0675,
  0xfbf6,
  0x0a4f,
  0x11e7,
  0xf670,
  0xf4e2,
  0xf975,
  0xe268,
  0xe1f5,
  0x0ece,
  0xfb22,
  0x22dd,
  0x0be2,
  0x0ee6,
  0x0984,
  0xfa7f,
  0xe4cb,
  0xfe1e,
  0x0107,
  0x10c6,
  0x1f28,
  0x21c4,
  0x0351,
  0xf9eb,
  0xf982,
  0xeb00,
  0x0e56,
  0x0700,
  0x07c7,
  0x1167,
  0x0850,
  0x1457,
  0x0ce2,
  0xe67c,
  0xd82d,
  0xb894,
  0xc3f4,
  0xebbc,
  0xfe54,
  0xfb15,
  0xf4e4,
  0x03eb,
  0x08ce,
  0xdf42,
  0xf37e,
  0xd17e,
  0xd2e9,
  0xee36,
  0x01a8,
  0xe029,
  0xe81d,
  0x07d1,
  0xe414,
  0xeaea,
  0xe6ef,
  0xed12,
  0xe72c,
  0x1642,
  0xfaf2,
  0xee99,
  0xf754,
  0xe961,
  0xd576,
  0xf0f5,
  0xfecd,
  0xf93f,
  0x02ee,
  0x0db0,
  0x1ac3,
  0x0795,
  0xd5bc,
  0xcc1d,
  0xd07e,
  0xe824,
  0xcb40,
  0xd599,
  0x03dc,
  0xf080,
  0xf4b4,
  0xefbe,
  0xd87a,
  0x00a5,
  0x1910,
  0x14a2,
  0x3a1b,
  0x0718,
  0xf999,
  0x1cb4,
  0xfe6b,
  0x173c,
  0x0e33,
  0xf4db,
  0x01b2,
  0x0aca,
  0xfba2,
  0xf3bd,
  0xed87,
  0xfaf0,
  0x0258,
  0x06a7,
  0xf81c,
  0x1a1f,
  0xffef,
  0xebb1,
  0xf4c2,
  0xd906,
  0xf273,
  0x0239,
  0x157a,
  0xf55d,
  0x1887,
  0x1656,
  0xfd1f,
  0xff45,
  0x0573,
  0xf001,
  0xfdb4,
  0x1aac,
  0x057b,
  0x0d5c,
  0x08ef,
  0x0db4,
  0xf770,
  0xeee4,
  0xedc7,
  0x0ed2,
  0x008f,
  0x0645,
  0x050e,
  0xf25c,
  0x09b4,
  0xf022,
  0xe81f,
  0xe849,
  0x09e5,
  0x0a80,
  0x07f8,
  0x2bf2,
  0x2a06,
  0xfd3d,
  0xffbf,
  0x0f88,
  0x0524,
  0xe969,
  0xeb16,
  0x0a90,
  0xf892,
  0x17f0,
  0x0479,
  0xfd79,
  0x0d13,
  0xdc8a,
  0xe188,
  0xded6,
  0xf72d,
  0x018b,
  0xf372,
  0xf304,
  0xed8c,
  0xf6c5,
  0xfc8b,
  0x03be,
  0xe885,
  0x06cd,
  0x0021,
  0x2123,
  0xfa50,
  0x02a4,
  0x07d6,
  0xf0bb,
  0xf4c9,
  0x048a,
  0xfe40,
  0xf729,
  0x027c,
  0xfd7c,
  0xee0a,
  0xf8d0,
  0xed30,
  0x03de,
  0xfc25,
  0x0535,
  0x1690,
  0x1147,
  0xee00,
  0xf467,
  0xf510,
  0xe2fa,
  0xecc2,
  0x07c2,
  0xf701,
  0xe98d,
  0x0823,
  0x0871,
  0x0a6f,
  0xfa64,
  0xf140,
  0xf9eb,
  0xfe5c,
  0x0bbe,
  0x06ef,
  0x12bf,
  0x008a,
  0xf9ba,
  0xf37c,
  0x0191,
  0x1afc,
  0x219e,
  0x0b0e,
  0x20b1,
  0x2ab8,
  0xf3b3,
  0xf6e6,
  0x0b9a,
  0xe4fa,
  0xce2d,
  0xf525,
  0x0eb5,
  0x0032,
  0x002f,
  0x2396,
  0x081c,
  0xf746,
  0xd9fc,
  0xe63d,
  0x0101,
  0x0d50,
  0x131f,
  0x12c9,
  0x0eac,
  0xf8a7,
  0xf6ca,
  0xda64,
  0xfff4,
  0xfca9,
  0xf66d,
  0xf23f,
  0xfb64,
  0xf545,
  0xe718,
  0xede7,
  0xea85,
  0xf04b,
  0xfd4e,
  0x0f4e,
  0x071b,
  0x1fe4,
  0x0da3,
  0x0999,
  0x0576,
  0xf9f7,
  0xf20c,
  0xfbd1,
  0xe333,
  0xe799,
  0xf159,
  0xdaa6,
  0xf2e6,
  0x0eba,
  0x0b34,
  0x155f,
  0x0da5,
  0x0491,
  0x0f3c,
  0x051f,
  0xfbf3,
  0x02dc,
  0xee6b,
  0xf30d,
  0xea64,
  0x05a6,
  0x1305,
  0x0b09,
  0xf110,
  0x0efa,
  0xec97,
  0xe747,
  0xf98d,
  0xf822,
  0x0ebb,
  0x1d4a,
  0xebf7,
  0xfc47,
  0xf722,
  0xcfb1,
  0xd8f6,
  0x2728,
  0x2615,
  0x1d1a,
  0x03d5,
  0x0d79,
  0xf67d,
  0xe88c,
  0xf534,
  0xe4c1,
  0xc7dd,
  0xee3c,
  0x06ad,
  0xdc98,
  0xdd7e,
  0xf557,
  0x1b90,
  0x0fd1,
  0x11ef,
  0xe431,
  0xd60b,
  0xf11b,
  0xc902,
  0xcc1a,
  0xea00,
  0xfd0e,
  0xfcaf,
  0xf7e9,
  0xffbb,
  0xfe74,
  0xff6f,
  0xfb4a,
  0xf791,
  0x046d,
  0xf603,
  0xfd85,
  0xf91d,
  0x261a,
  0x1a26,
  0x1f36,
  0x0c0e,
  0x146f,
  0xf27b,
  0xfa83,
  0xf066,
  0xfa26,
  0x13a8,
  0xefd1,
  0x0282,
  0x28e5,
  0x0ba3,
  0xfc57,
  0xff06,
  0xf89f,
  0xfeee,
  0x0192,
  0x037b,
  0x0a98,
  0xebd4,
  0xe929,
  0x162d,
  0xf202,
  0xfd90,
  0x00bc,
  0xf923,
  0xfacf,
  0xfd41,
  0xf614,
  0xe262,
  0xff34,
  0xdfdd,
  0xebd0,
  0x0b7e,
  0x1b00,
  0x171c,
  0x2230,
  0x2f67,
  0x0bb3,
  0x025d,
  0xfd7a,
  0xeeb6,
  0xf49c,
  0x2787,
  0x0220,
  0x17fc,
  0x250f,
  0x03f7,
  0x0429,
  0xf194,
  0xc017,
  0xe498,
  0x0d06,
  0xf7f0,
  0xfc64,
  0xf9f2,
  0x0a4f,
  0x0fef,
  0xf74a,
  0xf633,
  0x08dc,
  0x01db,
  0x075b,
  0xf4fa,
  0x0e2a,
  0x0a28,
  0x0094,
  0x0bb7,
  0x074e,
  0xe3bb,
  0xe2bc,
  0xb210,
  0xcb46,
  0xe6e8,
  0xe0ac,
  0xe376,
  0xfcf1,
  0xd821,
  0xfc2d,
  0x0ab5,
  0xf6e6,
  0xfc48,
  0x2841,
  0x04dc,
  0xf813,
  0x0b6e,
  0xd522,
  0xe73a,
  0xef55,
  0xf431,
  0xe7a7,
  0xe92c,
  0xed8a,
  0x2897,
  0x17c9,
  0x23cd,
  0x161a,
  0x0143,
  0x0b4e,
  0xfac3,
  0x025c,
  0xebd8,
  0xe423,
  0x0630,
  0xd0db,
  0xfeac,
  0x07b1,
  0xee68,
  0x040a,
  0x1b1f,
  0xf98a,
  0x159f,
  0x0114,
  0xeab1,
  0x044e,
  0x168b,
  0xfbd8,
  0x007a,
  0x0c1d,
  0xfa11,
  0xf618,
  0x0b93,
  0x0a45,
  0x065b,
  0x0f18,
  0xd149,
  0xe0a6,
  0x0fab,
  0x1389,
  0xedd3,
  0x0d01,
  0xf97c,
  0xe250,
  0xf55e,
  0xff42,
  0x0524,
  0xe2be,
  0xdab9,
  0xe57c,
  0xfbae,
  0xe244,
  0x0534,
  0xf2e5,
  0xe81d,
  0x0ef5,
  0xdcca,
  0xec85,
  0x03f1,
  0x0487,
  0xe33e,
  0xf7f1,
  0xf465,
  0xf3b6,
  0xe25d,
  0xacad,
  0xfab0,
  0x1623,
  0xfdf8,
  0x073a,
  0x1416,
  0x0ba7,
  0xecde,
  0x0950,
  0x063f,
  0xebbf,
  0xeb2f,
  0xfd69,
  0xe96a,
  0xe4a4,
  0xf9d8,
  0xe0b7,
  0xf049,
  0xf8fe,
  0xe9bd,
  0xf701,
  0xf414,
  0xeac5,
  0xebe7,
  0x0eed,
  0x14ed,
  0x07d2,
  0x25b9,
  0xf875,
  0x033d,
  0x0bcb,
  0xe21e,
  0xedd9,
  0x1a74,
  0xfa9d,
  0xfc6b,
  0x0cea,
  0xe5a4,
  0xf4b5,
  0x2626,
  0x0bb2,
  0xfacb,
  0x1784,
  0x0a02,
  0xf8d4,
  0xf5d6,
  0xfd96,
  0x0305,
  0xfc3a,
  0x034d,
  0x1796,
  0xf10a,
  0xd5a8,
  0xea85,
  0x0bdb,
  0xfc5d,
  0x149c,
  0xf5dc,
  0xf703,
  0xf65b,
  0xd812,
  0x04bd,
  0x1841,
  0xdcce,
  0xf779,
  0x1f62,
  0xe1ff,
  0xed6c,
  0x0280,
  0xf2fe,
  0xf1e6,
  0xe130,
  0xe7db,
  0xe083,
  0xe1cf,
  0xf858,
  0xf63d,
  0xf144,
  0x046b,
  0xfdc7,
  0xf820,
  0xfdfb,
  0xf5df,
  0xf8d5,
  0x18d8,
  0x18d0,
  0x0e8e,
  0x0dc4,
  0x072e,
  0xf8a8,
  0xff5e,
  0x0261,
  0x05ae,
  0x1124,
  0x13ee,
  0x0f78,
  0xf35e,
  0xf8ef,
  0x02bc,
  0xe19e,
  0xe786,
  0xfb8f,
  0xf9a2,
  0xf2ea,
  0xf1a2,
  0xf43e,
  0x03e6,
  0x2571,
  0x02b9,
  0xfa61,
  0x0061,
  0xf9de,
  0xea5a,
  0x013c,
  0xd665,
  0xf65e,
  0x1fba,
  0xf4d8,
  0x0097,
  0x0aa0,
  0xffb2,
  0x08df,
  0xf7c5,
  0x0a43,
  0x041e,
  0xfa92,
  0xf580,
  0xf35b,
  0xeec3,
  0xf192,
  0x0d3e,
  0x0fbb,
  0xfb57,
  0x0a7c,
  0x1673,
  0xfc08,
  0x06c6,
  0x1bbc,
  0x042e,
  0x040c,
  0x00d0,
  0x088a,
  0x0c2d,
  0xfbd3,
  0x03fe,
  0xf61e,
  0x014f,
  0x075c,
  0x0551,
  0xf90b,
  0xfd31,
  0xfe33,
  0x1259,
  0xe1eb,
  0xf3f5,
  0x0b27,
  0x00d1,
  0xe82f,
  0xfba7,
  0xf5af,
  0x04de,
  0x00a5,
  0xd9e1,
  0x09d7,
  0x0813,
  0xf921,
  0x026d,
  0xfa26,
  0x0803,
  0x1446,
  0x0b7d,
  0x0224,
  0x191b,
  0x23b5,
  0xfb34,
  0x09e6,
  0x1438,
  0xf7f0,
  0xf2d6,
  0xeeba,
  0x155d,
  0x17db,
  0x059f,
  0xf7cf,
  0xf5d2,
  0xef0a,
  0xfea6,
  0x04b6,
  0x007b,
  0xd9e0,
  0xf0de,
  0xf5e5,
  0xe890,
  0xd204,
  0xe997,
  0x0e17,
  0x118d,
  0x19ae,
  0x0040,
  0xf6e3,
  0x0637,
  0x02bb,
  0xfba7,
  0x07de,
  0xe685,
  0xf3b4,
  0x15ea,
  0x06b3,
  0x034a,
  0xeedb,
  0x02ca,
  0x07da,
  0xfa90,
  0x0a65,
  0x06c4,
  0x0598,
  0x0032,
  0x0fcd,
  0x02c3,
  0x24f5,
  0x17a8,
  0x1144,
  0x04e2,
  0x0129,
  0x1886,
  0xd527,
  0xe88a,
  0xfbb1,
  0xdded,
  0x04b4,
  0xee1f,
  0xfbde,
  0xfaff,
  0x00b8,
  0xfe58,
  0x05c3,
  0xf1d4,
  0x20ee,
  0x11d4,
  0xfec6,
  0xf489,
  0x057a,
  0xf5c4,
  0x1800,
  0x1b74,
  0x0b24,
  0xf3bb,
  0xfae1,
  0xf954,
  0xf8a8,
  0xf2de,
  0x0ba2,
  0xeb9e,
  0xf857,
  0x0ab3,
  0x02c1,
  0xfaa0,
  0x087b,
  0xfca0,
  0xef92,
  0xf26a,
  0x0bff,
  0xfd11,
  0x0e97,
  0x1b71,
  0xfcad,
  0xfdc0,
  0xcd75,
  0xebbf,
  0x054a,
  0xd8eb,
  0xf8a7,
  0xfed3,
  0x1207,
  0x1ab4,
  0x208e,
  0xe57d,
  0xfb8c,
  0x0bf8,
  0xf1c6,
  0x06f7,
  0x020d,
  0xe257,
  0xe1c7,
  0xff61,
  0x051d,
  0x088d,
  0x081e,
  0xe7c1,
  0xff4c,
  0x012b,
  0xd018,
  0xf009,
  0x02ee,
  0x094d,
  0xf210,
  0xfd8c,
  0x0e8a,
  0xfecc,
  0x0edc,
  0x0cad,
  0xf1a5,
  0xfa80,
  0x0e89,
  0xf65a,
  0xef61,
  0xfc3a,
  0xf987,
  0xdfac,
  0x080d,
  0x01bd,
  0x0a34,
  0xff3d,
  0xfc9a,
  0xf13c,
  0xd554,
  0x0e26,
  0x0063,
  0x012c,
  0x01b2,
  0xf4ae,
  0xf172,
  0xeccb,
  0xfd0b,
  0xe41c,
  0xf2d9,
  0xe95a,
  0xfab7,
  0xf86f,
  0xf28b,
  0x0932,
  0xf636,
  0xf9cc,
  0x00de,
  0xe598,
  0xee80,
  0x1092,
  0x073f,
  0xf596,
  0xf3fc,
  0xee29,
  0xefbd,
  0x0b24,
  0x1521,
  0x079c,
  0x0597,
  0x061c,
  0x090c,
  0xe4e9,
  0xe397,
  0xe075,
  0xea72,
  0xf8ab,
  0x14fe,
  0x03a5,
  0xf8e4,
  0x06fa,
  0xeb16,
  0xe342,
  0xdcaa,
  0xfc79,
  0xd96b,
  0xda6f,
  0xf10f,
  0xf6dd,
  0xfd5a,
  0x02fb,
  0xff40,
  0x069d,
  0x2d28,
  0x1931,
  0xfd0d,
  0x0e04,
  0x155c,
  0xf493,
  0xfaa2,
  0x07a5,
  0x14b9,
  0x17e3,
  0x12c1,
  0x087a,
  0x107e,
  0x0940,
  0xd7a8,
  0xd995,
  0xe614,
  0xf7cb,
  0xd77b,
  0xf2af,
  0x05cb,
  0xea9b,
  0xf17c,
  0x1e68,
  0xc1ec,
  0xfd57,
  0x0939,
  0x12d8,
  0x21ef,
  0xfaa3,
  0x0483,
  0x0a86,
  0xf941,
  0x0371,
  0x09fd,
  0xf96d,
  0xed69,
  0x046a,
  0x0849,
  0xff71,
  0xeff0,
  0xe2c0,
  0xef9b,
  0xfb96,
  0xfc56,
  0x0308,
  0x10d5,
  0xfde4,
  0x0fda,
  0xfd39,
  0xf760,
  0x07e7,
  0x31e3,
  0x128c,
  0x1653,
  0x2784,
  0xfb10,
  0x04f7,
  0x0f56,
  0xe5e7,
  0xeb61,
  0xe717,
  0xdfb1,
  0xf0b9,
  0xe2b4,
  0xefb1,
  0xef30,
  0xe6ff,
  0xf0c7,
  0xefd6,
  0xdf66,
  0xfc04,
  0xe780,
  0xe7f8,
  0xf39f,
  0xc9af,
  0xe60b,
  0xed98,
  0xe766,
  0xb16e,
  0xefb2,
  0xeefb,
  0xdb80,
  0xe579,
  0xf5cc,
  0xe21b,
  0xf744,
  0x1d02,
  0x2236,
  0x23b4,
  0x3293,
  0x1a77,
  0x189e,
  0xff44,
  0xf809,
  0xef7a,
  0xe4c7,
  0x0454,
  0xddca,
  0xe3c2,
  0xe66d,
  0xa3c3,
  0xe070,
  0xdb98,
  0xf62e,
  0xfcce,
  0x1627,
  0xffb7,
  0xf722,
  0x1da0,
  0x1f30,
  0xf539,
  0x1687,
  0x274f,
  0xe052,
  0xf09d,
  0xf99f,
  0xf19d,
  0xfbda,
  0x1261,
  0xd6ab,
  0x1a4d,
  0x02d2,
  0x2200,
  0x03e9,
  0xe9d5,
  0xf5a2,
  0xf997,
  0xfeb8,
  0xedfc,
  0xf386,
  0xf328,
  0xea3c,
  0x11ae,
  0x1d82,
  0x193a,
  0x2763,
  0x1cd6,
  0x0de9,
  0x0c10,
  0xe73d,
  0xe932,
  0xe80d,
  0xe921,
  0xfdac,
  0x191d,
  0x23df,
  0x0857,
  0x1b91,
  0xfce0,
  0xf32d,
  0x0040,
  0x005b,
  0x1928,
  0x06c8,
  0xf5fc,
  0x085b,
  0x063f,
  0xe86b,
  0x2e17,
  0x021e,
  0xf1f5,
  0x2afb,
  0xeaa3,
  0xdd11,
  0xf3e3,
  0xdec7,
  0xf614,
  0xeef2,
  0xeed4,
  0x00a0,
  0xfdb8,
  0xff83,
  0xff62,
  0xf5f5,
  0xf972,
  0xf4f5,
  0xf1e2,
  0x17f3,
  0xebf4,
  0xf30d,
  0xd767,
  0xdba8,
  0xea09,
  0xede8,
  0x1497,
  0xd156,
  0xf14e,
  0x1697,
  0xf850,
  0x0555,
  0x18a3,
  0x0a92,
  0x14f3,
  0x0393,
  0xe853,
  0xf13e,
  0xe9d7,
  0xec3f,
  0xfcfb,
  0x1aea,
  0xfc37,
  0x00eb,
  0xf462,
  0xfcfa,
  0xdafb,
  0xf243,
  0xe099,
  0xffb6,
  0xfed8,
  0xed0f,
  0x0e56,
  0xeda1,
  0xf77c,
  0x135a,
  0x12ce,
  0x162e,
  0xf0a4,
  0xf7ba,
  0xf4c2,
  0xf74d,
  0xf98b,
  0xf82b,
  0xf219,
  0xe79f,
  0x11ba,
  0xf388,
  0xf899,
  0x0cde,
  0xef5e,
  0xf3e0,
  0xfaab,
  0x18a6,
  0x2593,
  0x1b5c,
  0x102d,
  0x29bf,
  0x13c3,
  0xf8e1,
  0xf022,
  0xfae5,
  0xe370,
  0xdf92,
  0xfc80,
  0xc733,
  0x0d0c,
  0xec97,
  0xf085,
  0x13db,
  0xea93,
  0x0076,
  0xd62b,
  0xf196,
  0xf4f1,
  0xec73,
  0x0720,
  0xec5c,
  0xf049,
  0x0fa8,
  0x0ad1,
  0xf71a,
  0x3ae9,
  0x07d5,
  0xf091,
  0x10b1,
  0xf5fb,
  0xd8d2,
  0x06a3,
  0x0e5b,
  0x09c9,
  0x102f,
  0x09c9,
  0x0d88,
  0xfa7f,
  0xf6d4,
  0x09f5,
  0xf526,
  0xe5bc,
  0xf326,
  0xe1fb,
  0xddd0,
  0xd14e,
  0xf3ec,
  0xf148,
  0xf225,
  0x01df,
  0x08ad,
  0xf59c,
  0xea8d,
  0xf01d,
  0xda4b,
  0x005a,
  0x0bd0,
  0x0121,
  0x075f,
  0xfd1d,
  0xf8de,
  0xfeab,
  0xf566,
  0xf6bf,
  0x1092,
  0x0252,
  0x0604,
  0xf554,
  0xf533,
  0xf4de,
  0x1929,
  0x069a,
  0xf404,
  0x114e,
  0x01d6,
  0xfef3,
  0xfe88,
  0x0346,
  0x0d46,
  0xfae1,
  0x0056,
  0x113a,
  0xfdad,
  0xfe12,
  0x10ad,
  0x045b,
  0x0aa1,
  0x1a4e,
  0xf296,
  0x02e8,
  0xffb7,
  0xf346,
  0x0947,
  0xfbd8,
  0xfda7,
  0xf9b6,
  0x0088,
  0xfddf,
  0x0321,
  0xfd64,
  0x09c5,
  0x09fc,
  0x0bd2,
  0xf20c,
  0xeb70,
  0xe92d,
  0xed01,
  0x088b,
  0xe17d,
  0xfdbd,
  0x0713,
  0xf9b0,
  0xdcfb,
  0xdab7,
  0xec87,
  0xf5e2,
  0xe996,
  0xea33,
  0x149c,
  0x0217,
  0xfae6,
  0x0706,
  0x203e,
  0x13fa,
  0x0c81,
  0x168c,
  0xf260,
  0x019b,
  0x117d,
  0xf4ff,
  0x0555,
  0xf734,
  0x0460,
  0x0ebe,
  0x038e,
  0xfc7c,
  0xfc5c,
  0xefcc,
  0xfb71,
  0xf77c,
  0xe43b,
  0xf346,
  0xe3dc,
  0xc878,
  0xdb82,
  0xfc96,
  0xec72,
  0xf2fa,
  0xf95f,
  0xed5c,
  0xf73c,
  0x1d9e,
  0x0345,
  0x0581,
  0x101b,
  0xf8ea,
  0xff58,
  0x00d8,
  0x0cba,
  0x0553,
  0x19e1,
  0x10d5,
  0x1533,
  0x1eba,
  0x1296,
  0x0dbd,
  0xfad3,
  0xf638,
  0x03a2,
  0xfb2f,
  0x0d67,
  0x07dc,
  0x0827,
  0x158c,
  0x03f5,
  0x0d47,
  0x1605,
  0x1daf,
  0x059b,
  0xfde9,
  0xf68e,
  0xfea1,
  0xff8a,
  0x0735,
  0x05bb,
  0xff64,
  0xf58c,
  0x036b,
  0x02f0,
  0xff01,
  0xffac,
  0x0ef8,
  0x09cd,
  0xfd94,
  0x05a6,
  0x0f80,
  0x0fbc,
  0x0f4b,
  0x1046,
  0xfd45,
  0x0535,
  0x00b6,
  0x06d5,
  0xf6eb,
  0x0d63,
  0xee86,
  0xf4b6,
  0xfb2d,
  0x013a,
  0x09e2,
  0x0606,
  0x036e,
  0xf840,
  0x02d6,
  0x0750,
  0xf6ed,
  0x006a,
  0x0c07,
  0xf6d0,
  0xfff8,
  0xfb76,
  0x150d,
  0x0d09,
  0x0133,
  0x065a,
  0xf6a0,
  0x0f3d,
  0x06d9,
  0x04a9,
  0xe6c4,
  0xe989,
  0xea4c,
  0xf481,
  0x0488,
  0x0832,
  0xf4a1,
  0x0411,
  0x0547,
  0x0573,
  0xf6e7,
  0xff1f,
  0x157c,
  0x0c3e,
  0x069d,
  0x0a51,
  0x05d3,
  0x0667,
  0x183c,
  0x0728,
  0x1917,
  0x0704,
  0x0b5a,
  0xf4a0,
  0xf5c6,
  0xfc5e,
  0x0d34,
  0xf07f,
  0xf336,
  0xfac9,
  0x055a,
  0x0eee,
  0x1619,
  0x0d5e,
  0x0d15,
  0x119e,
  0xfca4,
  0xfa42,
  0xffd3,
  0xffd4,
  0xfcf5,
  0xe61c,
  0x0777,
  0x0227,
  0x089d,
  0xfc38,
  0x0374,
  0xfe4b,
  0xef6d,
  0xf03d,
  0xe8d7,
  0x1095,
  0x0e7e,
  0xfdc7,
  0x0151,
  0xfff2,
  0x0215,
  0xfde1,
  0xfc63,
  0xe439,
  0xff2a,
  0x0b14,
  0xfb3e,
  0xf507,
  0x0255,
  0xfca8,
  0x04c2,
  0x05ef,
  0xf219,
  0x0752,
  0x12e2,
  0xfd7e,
  0xf8c1,
  0xf34c,
  0x0909,
  0x039d,
  0x019f,
  0xeb13,
  0x0b32,
  0x0949,
  0xfda2,
  0x037f,
  0x023a,
  0x0784,
  0xf9ac,
  0xf251,
  0xfba6,
  0xff86,
  0xf9b0,
  0xff68,
  0xe38e,
  0xef2b,
  0xf381,
  0x0ba2,
  0xfeeb,
  0x0faa,
  0xdc3f,
  0xdcc2,
  0x070e,
  0x0a94,
  0x0369,
  0x0f28,
  0x1fbe,
  0x0b64,
  0x0ccf,
  0x1504,
  0x0cbf,
  0xf92a,
  0x1ecc,
  0x03e1,
  0x069c,
  0x1814,
  0x0d89,
  0x0a56,
  0xfffd,
  0x0305,
  0xf80c,
  0x069e,
  0x217e,
  0x0600,
  0x01fd,
  0x08a9,
  0x12e0,
  0xf9f5,
  0xfdbb,
  0x088b,
  0xfe9a,
  0xfbb0,
  0x0236,
  0x10d5,
  0xff7c,
  0x1344,
  0x03de,
  0x088a,
  0xf867,
  0xe7e6,
  0xfa09,
  0x104a,
  0xe9d7,
  0xedfe,
  0x0295,
  0x076a,
  0x0059,
  0xfb9d,
  0xf6b1,
  0xf0b0,
  0x0549,
  0xea82,
  0xeab0,
  0xf665,
  0xf6b0,
  0xfaae,
  0xf1ef,
  0x010e,
  0x1716,
  0x14bb,
  0xf80e,
  0x0ffd,
  0x13c2,
  0xf636,
  0xf5d6,
  0xf3a4,
  0xfc0e,
  0xea3d,
  0x1246,
  0x121a,
  0x01e8,
  0x18ee,
  0x0bc1,
  0x0d16,
  0x123e,
  0x06c1,
  0x0a7f,
  0xfd46,
  0x0140,
  0x1622,
  0xf51f,
  0x0641,
  0x2dc7,
  0x0913,
  0x0791,
  0x0b38,
  0x0298,
  0x14fc,
  0x14cd,
  0x12c0,
  0x0231,
  0x08bd,
  0xf7f8,
  0x0c23,
  0x0e99,
  0x0621,
  0xff49,
  0x012f,
  0x10d9,
  0x02a6,
  0xed2e,
  0xf63a,
  0x016d,
  0xf003,
  0x022e,
  0x07fd,
  0xfd7d,
  0xfea5,
  0x0a90,
  0x0a72,
  0x0201,
  0x0f7e,
  0x14d6,
  0x298b,
  0x06a9,
  0x20ec,
  0x396b,
  0x0f38,
  0x1944,
  0x2e0f,
  0xef6e,
  0xee32,
  0xf2e2,
  0xd565,
  0xe9f4,
  0xefc9,
  0xe5dd,
  0xdfd0,
  0xe2bc,
  0xfb75,
  0x0b94,
  0x1c25,
  0x0667,
  0x0d24,
  0x1ba0,
  0xea0e,
  0x02ce,
  0x0443,
  0xf769,
  0xdadf,
  0xfa1b,
  0x1079,
  0xf9c7,
  0x0715,
  0x0275,
  0x05b7,
  0x02c0,
  0x0593,
  0x0f2e,
  0x0c60,
  0xfee9,
  0x0733,
  0x062a,
  0xf0e0,
  0xfb0e,
  0xfc68,
  0xf818,
  0xfefb,
  0x1875,
  0xd748,
  0xedc6,
  0xff2a,
  0xec92,
  0xf9f3,
  0xeaa7,
  0xfe55,
  0xf45d,
  0x0b44,
  0xfaa1,
  0x053c,
  0x24b4,
  0xec02,
  0x037b,
  0x0c29,
  0xf0e2,
  0xf51c,
  0xff67,
  0xfe94,
  0x05b1,
  0x219a,
  0xfee1,
  0x0a84,
  0x0fe1,
  0xf3e2,
  0xfba8,
  0x0fd1,
  0xf863,
  0x0530,
  0x070e,
  0x09b7,
  0x0f59,
  0x087f,
  0x0957,
  0x0fbb,
  0x1726,
  0x0987,
  0x0f44,
  0x183b,
  0xf8d3,
  0x123e,
  0x1171,
  0xe001,
  0xec6d,
  0xe57a,
  0xf8b8,
  0xe9b7,
  0x00d5,
  0xf419,
  0xedd4,
  0xf777,
  0x0605,
  0xecea,
  0x07cf,
  0x074b,
  0xea37,
  0x07fd,
  0xf438,
  0xf7c2,
  0xfc0f,
  0xea6e,
  0xfa49,
  0xf935,
  0xbf7a,
  0xdb1b,
  0xf042,
  0xdbef,
  0xd086,
  0xfdb9,
  0x08d7,
  0x0f0f,
  0x1a57,
  0x0b4e,
  0x0332,
  0x1c22,
  0xfd21,
  0xfd9e,
  0x0e22,
  0xf1e4,
  0x048f,
  0x04b0,
  0x0679,
  0x0ae0,
  0x1626,
  0xffa5,
  0xfd96,
  0x0788,
  0x0858,
  0x0ba3,
  0x0f67,
  0x1aff,
  0x11b3,
  0x0a90,
  0xf846,
  0xf1e8,
  0xe5ab,
  0xfa73,
  0x00ca,
  0x006c,
  0x0af1,
  0x026c,
  0xf56b,
  0x00fb,
  0x0098,
  0xf864,
  0xffbc,
  0x0133,
  0xfaf8,
  0x0d32,
  0x0a77,
  0x0f03,
  0x1690,
  0x166f,
  0xf2fc,
  0xf4be,
  0xfcc0,
  0x01b6,
  0xf510,
  0x0156,
  0x1c9a,
  0xf56a,
  0xf796,
  0x13fe,
  0x06e7,
  0x085b,
  0x0897,
  0x02f9,
  0xfaa2,
  0xf21a,
  0x0ff3,
  0xf4c3,
  0xe38b,
  0xf5f5,
  0xf993,
  0x085f,
  0xf9aa,
  0x067f,
  0x05aa,
  0xf467,
  0xff52,
  0x0818,
  0x01bb,
  0xf68b,
  0xeeb6,
  0x0363,
  0x051e,
  0x1872,
  0xf2d1,
  0x07df,
  0x0157,
  0xe292,
  0xfafd,
  0xf04d,
  0x017c,
  0xf11f,
  0x01f0,
  0x0317,
  0x0638,
  0x05aa,
  0x0090,
  0x003e,
  0x0c68,
  0xf1d1,
  0x1834,
  0x214b,
  0xf517,
  0x02db,
  0x1b26,
  0xe71f,
  0xe433,
  0xfcda,
  0xec2c,
  0xe547,
  0xec3a,
  0xff08,
  0x092a,
  0x0f14,
  0xe8ca,
  0xe9a5,
  0xedfc,
  0x1174,
  0x07d4,
  0x1029,
  0x0619,
  0x02cf,
  0xfe4d,
  0x010d,
  0xff21,
  0x0487,
  0xec89,
  0xf48c,
  0xf719,
  0x06eb,
  0xfdc1,
  0xe702,
  0x0a62,
  0x0ae6,
  0x1d36,
  0xf6f2,
  0x2aa5,
  0x4058,
  0xf76a,
  0x1d5b,
  0x1a15,
  0x028b,
  0x0918,
  0x0848,
  0xffab,
  0x2806,
  0x36ec,
  0xda1e,
  0x1f6a,
  0x0a0a,
  0xfc3f,
  0xecb9,
  0x1051,
  0xe328,
  0xfc81,
  0x1df6,
  0xf052,
  0xf188,
  0x16e9,
  0xeccb,
  0xea8b,
  0xf4f7,
  0xe141,
  0xf44a,
  0xef34,
  0x1237,
  0x0401,
  0x06a7,
  0xf790,
  0x069e,
  0x0dd7,
  0x03e1,
  0x217a,
  0x29cf,
  0xecce,
  0x1e19,
  0x0ce7,
  0xfff6,
  0xf969,
  0x0555,
  0x189e,
  0x2071,
  0x164a,
  0x02f8,
  0x04ea,
  0x0919,
  0x1053,
  0x14d8,
  0x0593,
  0xfc5c,
  0x0dfe,
  0x04de,
  0xfddc,
  0xfe90,
  0xf11d,
  0xe6ef,
  0xe166,
  0xfe38,
  0xebbe,
  0x0d0d,
  0x1dc5,
  0x01ac,
  0xf886,
  0x06f9,
  0x017c,
  0x01fd,
  0x0176,
  0x0bae,
  0xfb92,
  0x0030,
  0x0fd8,
  0x04d7,
  0x009e,
  0xf003,
  0xfb06,
  0x19e6,
  0xec15,
  0xf170,
  0x0269,
  0xea37,
  0xf62d,
  0xf896,
  0xf986,
  0xfa71,
  0xf165,
  0x0028,
  0xfee6,
  0x004c,
  0xf3fe,
  0x00fb,
  0x067c,
  0xfce8,
  0xfb5d,
  0x04c8,
  0x117c,
  0xfabf,
  0xfdf3,
  0x010d,
  0x0e8d,
  0xffaf,
  0xfa08,
  0xf984,
  0xfefd,
  0x04c1,
  0x064f,
  0x0608,
  0xf8d8,
  0x062e,
  0x003d,
  0xe7ba,
  0xdc1d,
  0xeda7,
  0xfe5b,
  0x116d,
  0x1895,
  0xf0c6,
  0x1e6c,
  0x0679,
  0x0350,
  0x0291,
  0xfdec,
  0x08f5,
  0x2411,
  0x082a,
  0xf52c,
  0xeb69,
  0xea98,
  0xd779,
  0xdda2,
  0xfe93,
  0xd6f0,
  0xedcc,
  0xf890,
  0xee23,
  0xfcf5,
  0x0e08,
  0xef15,
  0xf564,
  0x05eb,
  0x0227,
  0xf833,
  0x0690,
  0x053f,
  0x1a21,
  0x048c,
  0x1008,
  0x0298,
  0x02a8,
  0xfb20,
  0xe765,
  0xf52c,
  0xfd71,
  0x092b,
  0x07e5,
  0xe2f2,
  0xd639,
  0xf266,
  0x0358,
  0x07cf,
  0x1df1,
  0x06be,
  0x1197,
  0xf561,
  0xf143,
  0x0131,
  0x0681,
  0x0184,
  0x0d9d,
  0xedfc,
  0x0af1,
  0xfda1,
  0xe078,
  0xe6d3,
  0xe800,
  0x00f1,
  0xe7ad,
  0xfcab,
  0x0b87,
  0xfc1c,
  0x053c,
  0x16c0,
  0xfefd,
  0xf662,
  0xf695,
  0xf81a,
  0xfb3e,
  0xfdd9,
  0xfb73,
  0xfc19,
  0x107f,
  0xfbca,
  0x1725,
  0x1799,
  0xff52,
  0x2588,
  0x137b,
  0xe15b,
  0x00b7,
  0xf338,
  0xfcb1,
  0xf46e,
  0xfb50,
  0x0a5a,
  0xe9ad,
  0xf103,
  0x0350,
  0xfe1e,
  0xfcdd,
  0x0d65,
  0xecd1,
  0xf4f4,
  0xe0e4,
  0xe0b9,
  0xf578,
  0x0798,
  0xfef4,
  0xea91,
  0x0ea9,
  0x21f7,
  0x00f4,
  0x0455,
  0xf9ad,
  0xed6d,
  0x02bb,
  0xf672,
  0xf518,
  0xe4cd,
  0x041f,
  0xf9d0,
  0x0b22,
  0x2d82,
  0x1c2f,
  0x220b,
  0x4ba7,
  0x26e2,
  0xf004,
  0x0dbc,
  0x1694,
  0x0799,
  0x389b,
  0x2dad,
  0x3f1b,
  0x5143,
  0x2137,
  0xf5d2,
  0xf66e,
  0xe5fa,
  0xdc1b,
  0x0432,
  0xff49,
  0xfdfd,
  0xdbd3,
  0xdb8c,
  0xebf2,
  0xfa8e,
  0x1194,
  0xdd71,
  0xcbfc,
  0xe83a,
  0xdcd4,
  0xdddb,
  0xf2f7,
  0xfeac,
  0xea7c,
  0xfa6b,
  0xd7a9,
  0xfc89,
  0x0680,
  0x05fc,
  0xed15,
  0xdc13,
  0x1fd6,
  0x098d,
  0x035a,
  0x28e2,
  0x39d9,
  0x1fe1,
  0x28d1,
  0x2eeb,
  0x3470,
  0xe6fd,
  0xfef1,
  0x014b,
  0xfa42,
  0x0885,
  0x0374,
  0xfb0f,
  0x06aa,
  0xe63c,
  0xe0c4,
  0xe36e,
  0xf610,
  0xd3c8,
  0xe742,
  0xe7d0,
  0xd810,
  0xc824,
  0xcb4a,
  0x0bf7,
  0x0b67,
  0xfbec,
  0x03d0,
  0x0bd3,
  0x07d1,
  0x00b8,
  0xf98f,
  0xe411,
  0xfd4f,
  0xffe1,
  0xee94,
  0x06eb,
  0x093c,
  0x0779,
  0xf83b,
  0x0345,
  0xf990,
  0x178e,
  0x12ea,
  0x09aa,
  0xfa88,
  0x0bb3,
  0x1767,
  0xf05f,
  0xf1f3,
  0x0246,
  0x06fb,
  0x1441,
  0xebee,
  0x0daa,
  0x136e,
  0xdd56,
  0x1430,
  0x0be2,
  0xe9a3,
  0xe59a,
  0xe4a5,
  0xf84c,
  0xf9a5,
  0x0d78,
  0x0110,
  0x0cd1,
  0x05fb,
  0xf727,
  0xfaa4,
  0xf83a,
  0xf9f8,
  0xe1c0,
  0x016f,
  0x1d86,
  0x006f,
  0x2a88,
  0x2264,
  0xd0a2,
  0xc7b0,
  0xdca3,
  0xdc3a,
  0xe415,
  0xed27,
  0xf1c4,
  0xeffc,
  0xfacc,
  0xf712,
  0x0b6c,
  0x035d,
  0x0e58,
  0x396e,
  0x32e9,
  0x2f17,
  0x436a,
  0x16ae,
  0xec7b,
  0xfa56,
  0x058f,
  0xe028,
  0xe311,
  0xf19f,
  0xfd8c,
  0xdf53,
  0xe459,
  0xe75e,
  0xf7c3,
  0xe5a1,
  0xf89b,
  0xfefc,
  0x182a,
  0x1591,
  0x3071,
  0x10ad,
  0x1d3e,
  0x29b3,
  0x08d2,
  0x01c4,
  0x0994,
  0xe88c,
  0x01ae,
  0xdb7e,
  0xdf0f,
  0x0701,
  0x08d0,
  0x02cd,
  0xf1bc,
  0xf125,
  0x043b,
  0xf9af,
  0x0b90,
  0xf83d,
  0xeb12,
  0xdfbf,
  0xe7eb,
  0xf182,
  0x0330,
  0xfcb5,
  0xff8c,
  0xf845,
  0xd8eb,
  0xe0b0,
  0xd64d,
  0xfab9,
  0xef27,
  0xf362,
  0xf147,
  0x0712,
  0x0f6e,
  0xd5a6,
  0x1088,
  0xd167,
  0xf7ba,
  0xea0b,
  0xd44a,
  0x0491,
  0xdc23,
  0xd5fd,
  0xdd0d,
  0x06d4,
  0x062e,
  0x0dc0,
  0xf339,
  0xe130,
  0xf222,
  0xe05d,
  0xded8,
  0xf4b8,
  0x0173,
  0x068b,
  0x0857,
  0x1b27,
  0x320c,
  0x1282,
  0x37ca,
  0x29af,
  0x0281,
  0xf146,
  0xf060,
  0xf8b0,
  0x06b7,
  0x251e,
  0x0e50,
  0x1212,
  0x0ffc,
  0x097c,
  0x0c8f,
  0x30d0,
  0x12b2,
  0x09f4,
  0x2506,
  0x1d19,
  0x33e8,
  0x50dc,
  0x28d7,
  0x1d3e,
  0xf737,
  0xe845,
  0xf784,
  0xdeb4,
  0xe9f6,
  0x02ae,
  0x0fa5,
  0xfcaa,
  0xeb7f,
  0xe85c,
  0xf47e,
  0x04c9,
  0xf6d8,
  0xe96f,
  0xef6d,
  0xf272,
  0xef1d,
  0xfacc,
  0xf736,
  0xfc34,
  0x0d22,
  0x1cf5,
  0x21e3,
  0x469f,
  0x44e9,
  0x1222,
  0x03e6,
  0xe3c6,
  0x0f97,
  0x0ee3,
  0xfadb,
  0xfb9a,
  0xf22a,
  0x0594,
  0x1647,
  0x05a7,
  0x21a7,
  0xe1e2,
  0xf2a6,
  0x3fb5,
  0xea05,
  0xf793,
  0x1996,
  0xef4a,
  0x0134,
  0x1411,
  0xddb7,
  0xfc1f,
  0x0fba,
  0xed94,
  0x0f65,
  0xf572,
  0x0c1d,
  0xf47a,
  0x0b19,
  0x0598,
  0xf22a,
  0x1045,
  0xf560,
  0x01ce,
  0xfe3d,
  0xf9ad,
  0xfbea,
  0x1b6a,
  0xe31f,
  0xf1d6,
  0x37ce,
  0xdc50,
  0xf0bf,
  0x1f96,
  0xe4d2,
  0xeca6,
  0xebab,
  0x07eb,
  0xec1c,
  0xf9ac,
  0x0f18,
  0x1a51,
  0xfc3e,
  0x0846,
  0xf7d4,
  0xe1b3,
  0x05d7,
  0x08a8,
  0xf391,
  0x08f2,
  0xfb9c,
  0x04ba,
  0xfee1,
  0xf647,
  0x0922,
  0x06ae,
  0xe3ea,
  0x1074,
  0xed65,
  0xfee2,
  0x1275,
  0xedf8,
  0xf5ab,
  0x0055,
  0xfed6,
  0xea9b,
  0x1428,
  0xf889,
  0x01cc,
  0x021e,
  0x089f,
  0xfc12,
  0xfdef,
  0xf024,
  0xfe79,
  0x01d6,
  0xfbf6,
  0xf7d9,
  0x0ed3,
  0xffcb,
  0xf509,
  0xfc26,
  0xfaf2,
  0xeb44,
  0x05be,
  0xea4d,
  0xfa1a,
  0xfb87,
  0xfaee,
  0x0000,
  0xfa12,
  0xffb1,
  0xf5a9,
  0xf910,
  0xf5f0,
  0x0a13,
  0xef15,
  0xed50,
  0xf79b,
  0xfc17,
  0x0ce9,
  0x0087,
  0x0218,
  0x09f6,
  0xff43,
  0xed6a,
  0x03fe,
  0x05b1,
  0x09b5,
  0xff1a,
  0x005f,
  0xff94,
  0x1446,
  0x0d1f,
  0x0bd4,
  0x0560,
  0xf09d,
  0xf03d,
  0x0f23,
  0xfc98,
  0xed6c,
  0x0673,
  0xfca3,
  0x0310,
  0xeb98,
  0xfc4b,
  0x1322,
  0xed37,
  0xfe49,
  0x0650,
  0x0f7d,
  0xf982,
  0x078b,
  0xfb00,
  0xef6f,
  0xe714,
  0xf157,
  0xf7a5,
  0x0c37,
  0xff9a,
  0xf6f3,
  0xf9d4,
  0x1078,
  0xec57,
  0x1642,
  0x013a,
  0x076a,
  0x0164,
  0x0107,
  0x0c0d,
  0x01db,
  0xfa7a,
  0xef41,
  0xee30,
  0x0682,
  0xe77d,
  0xe709,
  0x0791,
  0xff76,
  0xfdc9,
  0xf0b5,
  0xec4f,
  0x12e6,
  0x0b1b,
  0x05f8,
  0x0399,
  0x0aa8,
  0x08da,
  0xf81a,
  0x0377,
  0x0220,
  0xfa39,
  0x0060,
  0xf97c,
  0xffde,
  0x0358,
  0x0203,
  0xf786,
  0x055b,
  0x0a24,
  0xf6b4,
  0xe235,
  0x0e14,
  0xfd05,
  0xeccf,
  0x0a5b,
  0x1fb4,
  0xf232,
  0xe87f,
  0x140e,
  0xe755,
  0x0000,
  0x0636,
  0xfe7d,
  0xf6bf,
  0xfb50,
  0x15fb,
  0xf9e4,
  0xf9d2,
  0x089b,
  0x0623,
  0xfbd6,
  0x0308,
  0xf8ff,
  0xf70b,
  0xfdd4,
  0x1822,
  0xf2cb,
  0x1372,
  0x0537,
  0xf68f,
  0x07fb,
  0xed0f,
  0xfbfe,
  0xfbc9,
  0xeed0,
  0xee46,
  0x0d60,
  0xf034,
  0xd47f,
  0x2107,
  0xf68c,
  0xf745,
  0x057b,
  0xf591,
  0x07a6,
  0xea56,
  0x0962,
  0x1132,
  0xfd98,
  0xf9de,
  0x0f93,
  0xed28,
  0x0f1c,
  0xf1c4,
  0x031e,
  0x0396,
  0x02a0,
  0xed07,
  0xf940,
  0x0bed,
  0xf85c,
  0x0329,
  0x21a3,
  0xd56e,
  0xf96f,
  0x341b,
  0xdc9e,
  0x0b37,
  0x12b7,
  0xdf03,
  0x0877,
  0x189a,
  0xecbd,
  0xde77,
  0x2ea4,
  0xdbf7,
  0xeceb,
  0x2098,
  0xfb5e,
  0x050d,
  0xf56a,
  0xf7e5,
  0x0010,
  0x052c,
  0xea8f,
  0x0661,
  0x07b9,
  0xf17d,
  0xff43,
  0xfff6,
  0x0563,
  0xfff9,
  0x06a8,
  0x06ea,
  0x0171,
  0xf32a,
  0xfe5f,
  0x03f2,
  0xf1e8,
  0xf86d,
  0x0104,
  0x055d,
  0x0eec,
  0xfa8b,
  0x0622,
  0x1d01,
  0x0dd0,
  0x0fc7,
  0x0096,
  0x0621,
  0x054c,
  0x016b,
  0xf1ef,
  0xf10c,
  0xfa0a,
  0x032c,
  0x0be1,
  0xf7d6,
  0xffc4,
  0x0b71,
  0x0d6a,
  0x0741,
  0x0561,
  0xfb88,
  0xf267,
  0x0f39,
  0xfd51,
  0x059b,
  0x0eb9,
  0xf904,
  0x0076,
  0x0577,
  0xf6ea,
  0x0944,
  0xeb96,
  0x0301,
  0x03e5,
  0xf6f6,
  0x0b10,
  0x178b,
  0xfda5,
  0x0e89,
  0xff35,
  0x0c7f,
  0xfdd6,
  0xf18f,
  0xf734,
  0xfd58,
  0xfc2d,
  0xf728,
  0xe661,
  0x0b16,
  0x06c6,
  0x0856,
  0x0d0f,
  0x0bfc,
  0x16d6,
  0x1662,
  0x05d8,
  0x002e,
  0x0986,
  0x0e0a,
  0xf22f,
  0xf80f,
  0xf106,
  0xf08e,
  0xf4fe,
  0xf5a1,
  0xf19f,
  0xf3e3,
  0xea85,
  0xf578,
  0x0002,
  0xf4a5,
  0x0400,
  0xf468,
  0xf416,
  0x0398,
  0xf8a1,
  0xfb52,
  0xf5db,
  0x055a,
  0x08ab,
  0xf174,
  0xfccf,
  0x1a1a,
  0x0aa2,
  0xea86,
  0xd3ca,
  0xeb0f,
  0xeaf5,
  0xf9df,
  0xebea,
  0x0483,
  0xfecf,
  0xfbe3,
  0xf1ba,
  0xf25c,
  0xeb9c,
  0xfbd3,
  0xf964,
  0xffba,
  0x077b,
  0x04f6,
  0x027e,
  0x0b52,
  0x1f2a,
  0x1386,
  0x116f,
  0x0742,
  0xfe57,
  0xf859,
  0xec8c,
  0xfcde,
  0x593d,
  0x6281,
  0x4bb9,
  0xfa2e,
  0xf351,
  0xd6b9,
  0xcdec,
  0xca15,
  0xeb41,
  0x0c8f,
  0x0f5e,
  0xf9a9,
  0xd899,
  0xf8e5,
  0x086c,
  0x0e5e,
  0x0cc0,
  0xf6fa,
  0xf878,
  0xf875,
  0xfd5d,
  0xe7c3,
  0xe47e,
  0xf61b,
  0xfb3a,
  0xf4d6,
  0x0260,
  0xffb8,
  0x10a2,
  0x1624,
  0x20c0,
  0x1962,
  0x12cd,
  0xfa9f,
  0x0b29,
  0xf681,
  0xf95e,
  0x08d6,
  0x0e0f,
  0x15ce,
  0x08f8,
  0xf308,
  0xfa46,
  0xf412,
  0xf7f5,
  0x0a1f,
  0xee5b,
  0xf8d7,
  0xe618,
  0x030d,
  0x14f0,
  0xfaab,
  0xfced,
  0xf31f,
  0xf506,
  0x0d93,
  0x19be,
  0x0556,
  0x0a09,
  0x02fa,
  0x0571,
  0xf5f4,
  0x04a8,
  0x2183,
  0x31b6,
  0x1a96,
  0xff4c,
  0xf05c,
  0xe9ba,
  0xdca0,
  0xe436,
  0xe9bf,
  0xf025,
  0xfd7e,
  0xef95,
  0xfeb9,
  0xeeca,
  0xea08,
  0xfa80,
  0xf810,
  0xf7e3,
  0xfddd,
  0x0ca9,
  0x1367,
  0x04a2,
  0x0ace,
  0xe77f,
  0xf1dc,
  0xf550,
  0xfae9,
  0x029c,
  0x0d13,
  0xfc0b,
  0x14a7,
  0x012c,
  0xe05f,
  0x06a8,
  0x005a,
  0xedc6,
  0xe9bb,
  0xf6a2,
  0xf464,
  0xffe2,
  0xf987,
  0x0220,
  0xfd71,
  0xe9f2,
  0x066b,
  0xfe16,
  0x1090,
  0x08fe,
  0xe66d,
  0xe5e6,
  0xf2c4,
  0xf4e1,
  0xfa4d,
  0x03ff,
  0xeaa1,
  0xfc12,
  0xefbd,
  0xf219,
  0xff5f,
  0xf37f,
  0xf1ba,
  0xe0d6,
  0xeeb2,
  0x0c52,
  0x0c2c,
  0xf6e9,
  0x022b,
  0x0032,
  0x0269,
  0xfb5e,
  0xfcbb,
  0xf4cd,
  0x0785,
  0x0d47,
  0x1116,
  0x0d9e,
  0x0cb1,
  0xff8b,
  0xfbaa,
  0xe900,
  0xf207,
  0xf5bc,
  0x022d,
  0xfa20,
  0xf2e5,
  0x1055,
  0xf51d,
  0x0a3a,
  0x11b8,
  0x0536,
  0x171a,
  0x036c,
  0xe15a,
  0x0a3d,
  0x01d9,
  0x073e,
  0x009e,
  0x0eac,
  0x0433,
  0x21a9,
  0x38f9,
  0x1d1d,
  0x16db,
  0xfc50,
  0xed2a,
  0xf610,
  0xe327,
  0xf102,
  0xf1cb,
  0x11e9,
  0x0a87,
  0xf92d,
  0xf652,
  0x08e9,
  0x211e,
  0x1ab2,
  0xebc4,
  0x1f2b,
  0x1a96,
  0xcd0b,
  0x35e9,
  0x1946,
  0xb842,
  0x1393,
  0x09bb,
  0xfbfe,
  0xf637,
  0xff1f,
  0xff3d,
  0xfd1c,
  0xfeb8,
  0xfef0,
  0xf966,
  0xf7d4,
  0x0985,
  0xf21c,
  0x04fb,
  0xfd7a,
  0xe532,
  0xfa9b,
  0xf2bd,
  0xef3e,
  0xf8ae,
  0x074a,
  0x0f72,
  0x128f,
  0x0444,
  0x1d16,
  0xf688,
  0x02e3,
  0x1b4f,
  0x01c5,
  0x0f3a,
  0xf4f5,
  0x182b,
  0x18ae,
  0x12e1,
  0x0c00,
  0x0600,
  0x0073,
  0xfb38,
  0xe639,
  0xe5a7,
  0x0a01,
  0x10eb,
  0xf8b7,
  0x091d,
  0x0c32,
  0xf26f,
  0x15b4,
  0x0372,
  0xfcaf,
  0x08af,
  0xe984,
  0xf9fb,
  0xfaad,
  0xda88,
  0xfedd,
  0xf5e5,
  0xea7b,
  0xd6c9,
  0x37ff,
  0x122e,
  0xe80f,
  0x406f,
  0x0ac7,
  0x06d1,
  0x3149,
  0x0ac9,
  0xe07c,
  0x012c,
  0x164a,
  0xe798,
  0xf20f,
  0x0919,
  0x0129,
  0xf7e0,
  0x05fd,
  0xed31,
  0xf1c0,
  0x082b,
  0xf757,
  0xeba0,
  0x0a46,
  0x03b1,
  0xf491,
  0xfc5c,
  0xd186,
  0xda03,
  0xf1da,
  0xd532,
  0xeec5,
  0xecc1,
  0xdb4f,
  0xedcf,
  0xdfeb,
  0xc7a8,
  0x19bc,
  0x0cfc,
  0xe51d,
  0x0fa3,
  0x086b,
  0xeeb9,
  0x042c,
  0x078f,
  0x1279,
  0x1aa5,
  0xe343,
  0xfaee,
  0x1325,
  0xeec6,
  0x1594,
  0x138d,
  0xe778,
  0xd21b,
  0xfa21,
  0xea71,
  0xe6ec,
  0x01bb,
  0x157f,
  0xf664,
  0xea95,
  0xf086,
  0xf22f,
  0xf93f,
  0xfe91,
  0xf9e8,
  0x294f,
  0x0495,
  0xf56a,
  0x01de,
  0xf255,
  0xe160,
  0x03fd,
  0x0977,
  0x02de,
  0x0fc3,
  0x05e5,
  0xf885,
  0x1a71,
  0xfd0f,
  0xfa87,
  0x1160,
  0x0863,
  0xdfe8,
  0x0011,
  0x134a,
  0xf022,
  0xf1dd,
  0x0074,
  0xe71e,
  0xf8f6,
  0xe51d,
  0xfa5c,
  0x07b6,
  0xf2a1,
  0xec18,
  0x03a1,
  0xf561,
  0xf030,
  0x152c,
  0x0dff,
  0xf0bb,
  0x0f49,
  0xfaa4,
  0xfe7a,
  0x1990,
  0x06b7,
  0xf527,
  0x15bb,
  0xf5b0,
  0xed07,
  0x0e18,
  0x0109,
  0xff2f,
  0xf68c,
  0xff89,
  0xedda,
  0xf1ea,
  0xfaa9,
  0xea7b,
  0xf8a6,
  0x02a2,
  0xf243,
  0x028a,
  0x0c37,
  0xfcfc,
  0xfc1c,
  0xe69f,
  0x0c11,
  0x0f9d,
  0x0eb0,
  0xf859,
  0xfeb2,
  0xfdf9,
  0xf26a,
  0x01af,
  0x0a4e,
  0xf5cc,
  0xfaa2,
  0x0399,
  0xf2a8,
  0xf69f,
  0xd8df,
  0xf16c,
  0xff84,
  0x073d,
  0xf1d8,
  0xf9b6,
  0x09e8,
  0xf5c4,
  0x00e5,
  0xed5b,
  0xdba2,
  0xf566,
  0x0436,
  0xe750,
  0x0c8f,
  0x1eaf,
  0x016c,
  0x0969,
  0x0511,
  0xfe3d,
  0xec6d,
  0xe7c6,
  0xeccd,
  0xf215,
  0xf1b8,
  0xda1f,
  0x1405,
  0x174d,
  0x0bdf,
  0xfd00,
  0x0687,
  0xf654,
  0xef5a,
  0xf5e7,
  0x0c68,
  0x03a3,
  0x02ac,
  0x1e82,
  0xf7a5,
  0xfdf5,
  0x1527,
  0xe202,
  0xf585,
  0x0190,
  0xea41,
  0x0b98,
  0x2208,
  0x01bf,
  0xd69d,
  0x3a33,
  0x08fb,
  0xda01,
  0x1929,
  0x022b,
  0xe634,
  0x0a55,
  0x0d3e,
  0x0270,
  0xeff0,
  0xfeee,
  0xf839,
  0xfd45,
  0xfa24,
  0xef7a,
  0xfed6,
  0x0c4a,
  0x13c9,
  0xf6af,
  0x04f2,
  0xfec1,
  0x0353,
  0xf65f,
  0xf930,
  0x08a7,
  0xfdf6,
  0xe660,
  0xf754,
  0x017b,
  0xf7da,
  0x09ec,
  0xf9e5,
  0xf0b7,
  0xfc12,
  0xfcd8,
  0x0615,
  0xf695,
  0xe8dd,
  0xe68e,
  0xdeff,
  0xd1ef,
  0xde8c,
  0x071e,
  0x0dcb,
  0x2080,
  0xfc5d,
  0x0ca9,
  0x0b4a,
  0xf99e,
  0xecb6,
  0x11da,
  0xefa3,
  0x0edb,
  0x2cca,
  0xfe68,
  0x188e,
  0x1f9c,
  0xfdcc,
  0xf1a2,
  0xf884,
  0xfeb2,
  0xf9bf,
  0xeaf1,
  0xfd94,
  0xffeb,
  0xedad,
  0x0348,
  0xfa7d,
  0xfac1,
  0x08fb,
  0x215e,
  0x0a1f,
  0xf122,
  0xfb37,
  0x1698,
  0xefe5,
  0xea1f,
  0x07c0,
  0xfbaf,
  0x0ece,
  0x077e,
  0xeeb0,
  0x0d68,
  0x0c97,
  0x0c9b,
  0x1fa0,
  0x36ee,
  0xf0d1,
  0x1afa,
  0x13b7,
  0x0b72,
  0x1e25,
  0x085b,
  0xeb24,
  0xe598,
  0xe008,
  0xf734,
  0xfa38,
  0x0830,
  0xecc1,
  0xfff7,
  0xef2b,
  0x0178,
  0x0018,
  0x0411,
  0xd789,
  0xbdf3,
  0xd888,
  0x109e,
  0xfaaf,
  0xc0bf,
  0x1a6a,
  0xfae4,
  0xef9a,
  0x0cc3,
  0x0377,
  0x065a,
  0x0370,
  0x10b7,
  0xef4f,
  0x07e0,
  0xfe8a,
  0xea2b,
  0x1c74,
  0x1062,
  0xf3c2,
  0xf662,
  0x0443,
  0x1243,
  0x0128,
  0x1353,
  0xe8fc,
  0xe57d,
  0xf046,
  0xf84d,
  0xdadc,
  0xe3e1,
  0xf645,
  0xfa20,
  0xf346,
  0xfb6f,
  0xf0c2,
  0x0694,
  0x07dd,
  0xe811,
  0xf2b8,
  0xf1cd,
  0xc423,
  0xc62f,
  0xbd41,
  0xe9af,
  0xf5d1,
  0xe31d,
  0xda27,
  0xd99e,
  0xe22c,
  0xfe2e,
  0xeb2c,
  0xe98f,
  0xe5c0,
  0x143b,
  0x1352,
  0x0615,
  0xf9b0,
  0x0f33,
  0xde27,
  0xe201,
  0x06ff,
  0xf9da,
  0x081d,
  0x1109,
  0xf41f,
  0x05e2,
  0x0357,
  0xfd09,
  0xedbb,
  0xf969,
  0xe3fa,
  0x0f5a,
  0x2b29,
  0xfbff,
  0x024d,
  0x0e6a,
  0x0b18,
  0xf5b2,
  0xfb03,
  0xf3e4,
  0xeaaf,
  0xea8c,
  0x23cf,
  0x1024,
  0x0177,
  0xec98,
  0x10b4,
  0x2a4d,
  0x023f,
  0x1f9a,
  0x133f,
  0x0cd3,
  0x1faa,
  0x0e50,
  0xede2,
  0xd5ff,
  0xeebf,
  0xec73,
  0xed0d,
  0xfe6b,
  0xf741,
  0x0449,
  0x019d,
  0x00b6,
  0x0960,
  0x0c43,
  0x0dd3,
  0x0e9f,
  0x0336,
  0x045c,
  0x1a91,
  0xfe82,
  0x0922,
  0x0655,
  0x0edb,
  0xe702,
  0xfc72,
  0xea8b,
  0x1084,
  0x133e,
  0xfa97,
  0xf6ac,
  0xffb3,
  0xf8e8,
  0x02f6,
  0x0c73,
  0x1140,
  0xffea,
  0x001a,
  0x0798,
  0x0326,
  0xfa13,
  0xf488,
  0x100d,
  0xfc72,
  0x1b97,
  0xf6db,
  0x0450,
  0x2103,
  0xfb64,
  0xec64,
  0xe269,
  0xf7a4,
  0xf06b,
  0xfc77,
  0xfab1,
  0xf404,
  0xef61,
  0xe394,
  0xebe9,
  0xeea2,
  0xfe24,
  0x1731,
  0x1e55,
  0xf582,
  0x0270,
  0x18b8,
  0xf01c,
  0xe8c1,
  0x13f8,
  0xed6f,
  0x179b,
  0x1cfb,
  0x14ee,
  0x0af1,
  0x126e,
  0x0e4c,
  0xeda5,
  0xf26c,
  0xfa7b,
  0x1a09,
  0x2469,
  0xf7e6,
  0x0b40,
  0x0bb7,
  0x08fd,
  0x0e4f,
  0xf5c6,
  0xfb03,
  0x0560,
  0xf2da,
  0xea28,
  0x0552,
  0xdb77,
  0x0ba0,
  0x05f2,
  0xec17,
  0xe10f,
  0xe4f8,
  0xfa22,
  0x133a,
  0x0201,
  0xd529,
  0x1b2c,
  0xfe33,
  0xf379,
  0xf7d8,
  0x1bdb,
  0x16b9,
  0xefd1,
  0x05aa,
  0x0fd0,
  0x04b7,
  0x003e,
  0xfe7c,
  0x0725,
  0x01db,
  0xe9df,
  0x10ae,
  0x071d,
  0x0f97,
  0xff7a,
  0x0284,
  0xf89f,
  0xf78b,
  0xd197,
  0xe84d,
  0xd029,
  0xd3bc,
  0xd50b,
  0xf4bf,
  0xeb90,
  0xfe99,
  0xf8ce,
  0xefe5,
  0x076c,
  0x13ef,
  0x0c40,
  0x08d1,
  0x0dae,
  0xf0d6,
  0xf405,
  0x07c3,
  0xfe64,
  0x044f,
  0x04cf,
  0xff21,
  0xf631,
  0xf8fa,
  0x0123,
  0x12fd,
  0xfa4b,
  0x0d1c,
  0xfdc2,
  0xe2b8,
  0xe246,
  0xe575,
  0xee25,
  0x0191,
  0xec89,
  0x0490,
  0x024e,
  0x0ed5,
  0x050f,
  0x11df,
  0x0479,
  0xf098,
  0xdac9,
  0xf4a2,
  0x03aa,
  0x00a4,
  0x0f92,
  0x1c12,
  0x2d77,
  0x24a4,
  0xf269,
  0xea15,
  0xf0ca,
  0xf8bb,
  0x0123,
  0x157c,
  0x0aca,
  0x01ff,
  0x044b,
  0xf24e,
  0x0485,
  0xfefa,
  0x00d5,
  0xfe35,
  0xe727,
  0xe62c,
  0xf1ed,
  0xde4f,
  0xf3cd,
  0x0a86,
  0x013c,
  0x16a0,
  0x0e46,
  0x0f91,
  0xdb43,
  0xda81,
  0xeec4,
  0x2587,
  0x038b,
  0xedf8,
  0xddaf,
  0x053f,
  0x064b,
  0x0049,
  0xf38e,
  0xe65e,
  0x0b64,
  0xf945,
  0xea0f,
  0xf869,
  0xe6c0,
  0xd6e6,
  0x10e1,
  0x000f,
  0xfb56,
  0xfde1,
  0xfe62,
  0xfcfe,
  0xf0e3,
  0xe8d2,
  0xf7c9,
  0xc9f1,
  0xca4e,
  0xdaea,
  0xf999,
  0xfa7c,
  0x0770,
  0x1274,
  0xfc4a,
  0x0083,
  0x0e01,
  0x05a7,
  0x0519,
  0xf6d2,
  0xdd4f,
  0xe5a5,
  0x126d,
  0x26c9,
  0x16cc,
  0x0030,
  0xf22f,
  0xf6f4,
  0x077d,
  0x1867,
  0x0d4d,
  0xfb28,
  0xf8d2,
  0x22cd,
  0xf467,
  0x0760,
  0x0206,
  0x0c3e,
  0xffa3,
  0x0ae5,
  0x06a1,
  0xfd8a,
  0xfd26,
  0x1e27,
  0x23e9,
  0x1823,
  0x024b,
  0xed93,
  0xf846,
  0xf586,
  0x01e7,
  0xf9b0,
  0xf257,
  0xf8fb,
  0x0847,
  0x0f10,
  0xf7f0,
  0x18b2,
  0x0be3,
  0x0384,
  0x17c2,
  0x1d00,
  0x146e,
  0x04b5,
  0x1178,
  0x057e,
  0xf9b3,
  0x0c90,
  0x1838,
  0xfdd4,
  0xef8b,
  0x03ad,
  0xe5ea,
  0xe974,
  0xea34,
  0x14a2,
  0x0ff4,
  0x057f,
  0x0b69,
  0x066c,
  0x0817,
  0xfe35,
  0xfd0f,
  0xf8d9,
  0xf59c,
  0xfa12,
  0x02f4,
  0xfc45,
  0xf276,
  0x122b,
  0x06b5,
  0xf6ce,
  0xf9ec,
  0x006d,
  0x0d90,
  0x1b9d,
  0x0460,
  0xe687,
  0x0954,
  0xefc3,
  0x1f44,
  0xf250,
  0xf535,
  0xf46d,
  0xf7c1,
  0xfa02,
  0x07c0,
  0x1139,
  0x0b93,
  0xf84f,
  0x0273,
  0x12fa,
  0xff4c,
  0xf5aa,
  0xe5d3,
  0x1fdf,
  0x0de9,
  0x1108,
  0xfec2,
  0xfc90,
  0xfa25,
  0x0cf2,
  0x28fc,
  0x18ac,
  0xf6b5,
  0xfea7,
  0x0a03,
  0xfda5,
  0x0a68,
  0xf71f,
  0xfe63,
  0x0eba,
  0x0682,
  0x0057,
  0x105d,
  0x0f4a,
  0xe231,
  0xf527,
  0x0a83,
  0xfd07,
  0x089a,
  0xf6bb,
  0xf8e8,
  0xeb09,
  0xf080,
  0xd40b,
  0xf5ae,
  0xf086,
  0xea77,
  0xf30d,
  0xeee0,
  0xfa50,
  0x0f29,
  0x04f1,
  0xf40b,
  0xf863,
  0xe819,
  0xfc79,
  0xfaa6,
  0xfc61,
  0xf759,
  0x0da1,
  0xf687,
  0xe6c0,
  0xdc26,
  0xd293,
  0x1e82,
  0x0ea5,
  0xecc3,
  0xf6a7,
  0xe785,
  0xede5,
  0x0a6d,
  0x2102,
  0xfdab,
  0x0883,
  0x060a,
  0x03a6,
  0x0103,
  0x0168,
  0xfb7e,
  0xf0e3,
  0xe300,
  0xec47,
  0xf2d6,
  0xff88,
  0xf809,
  0xe7fa,
  0xeeba,
  0xea3b,
  0x082a,
  0xeb17,
  0xf350,
  0xf0ff,
  0xfcff,
  0x0c41,
  0x0040,
  0xfc9a,
  0x0d58,
  0x04c3,
  0x11ab,
  0x035b,
  0xfa6c,
  0xfc74,
  0x0080,
  0x0c31,
  0x0769,
  0xf20e,
  0x05ba,
  0x01a4,
  0x0dea,
  0xfcfb,
  0x022a,
  0xfa55,
  0xfb41,
  0xf78d,
  0xf51e,
  0xe8d1,
  0xe8bf,
  0xfb43,
  0x0ae2,
  0x04b1,
  0x097a,
  0xfd54,
  0x0b13,
  0x02c2,
  0xfeea,
  0xf7d4,
  0x06bd,
  0xfe79,
  0xfb84,
  0xfbf4,
  0xd767,
  0x0379,
  0x085d,
  0xf388,
  0xda92,
  0xfd1d,
  0xed31,
  0xf593,
  0xed97,
  0xca62,
  0xd4b2,
  0xda80,
  0x0176,
  0xf544,
  0xf22a,
  0xfab4,
  0xf74c,
  0xfe14,
  0x0779,
  0xf781,
  0xdfd9,
  0xfbbf,
  0xf7cf,
  0xf1e7,
  0xfeeb,
  0x0c28,
  0x1201,
  0x08c6,
  0x1621,
  0x0cf1,
  0xee0d,
  0x0a39,
  0x09d5,
  0xfce8,
  0xf91b,
  0xfdfa,
  0xfb2f,
  0x123c,
  0xf79e,
  0x086f,
  0x2c57,
  0x1779,
  0x043c,
  0x0403,
  0x0be1,
  0x05f9,
  0xfbae,
  0x00e3,
  0xeb62,
  0xf46d,
  0xf61a,
  0x0e63,
  0x06f9,
  0xf044,
  0xf89c,
  0xf60f,
  0x09e2,
  0x00e5,
  0xf1bd,
  0xff1a,
  0x01e2,
  0xf2ae,
  0xf7db,
  0xf8a2,
  0x0d02,
  0x1404,
  0x080a,
  0x1958,
  0x180c,
  0xc198,
  0xcf08,
  0xeb23,
  0xd840,
  0xe99e,
  0xe622,
  0x3551,
  0x3375,
  0x3739,
  0xf8f7,
  0x0235,
  0xf32d,
  0x1c66,
  0x2875,
  0x21f7,
  0x1852,
  0x2ba2,
  0x285c,
  0xfeaf,
  0x0d19,
  0x289d,
  0xf9d0,
  0xfced,
  0xf884,
  0xef4d,
  0x0a0a,
  0x005f,
  0x0be9,
  0x0db4,
  0x0a4e,
  0xd120,
  0xe0f3,
  0xef80,
  0x0579,
  0xdfb4,
  0xc5f6,
  0xf9e6,
  0xf95f,
  0x0998,
  0x0379,
  0x09ce,
  0x04d7,
  0xfc5d,
  0xf2d4,
  0x0264,
  0x1656,
  0x1b9b,
  0x17c2,
  0x0101,
  0x048a,
  0xef57,
  0xec4f,
  0xf38f,
  0xf1b4,
  0xff39,
  0xf478,
  0x016b,
  0x0c70,
  0xf3be,
  0xe4ba,
  0x07da,
  0xf575,
  0xea1c,
  0xf9f4,
  0xf5fc,
  0xf5fa,
  0xe75f,
  0xf004,
  0xf773,
  0x253b,
  0x4220,
  0x24e1,
  0x044c,
  0xf485,
  0xff99,
  0xfd4d,
  0xf3d7,
  0x002b,
  0xf253,
  0xf35f,
  0xffd3,
  0xf15c,
  0xe1e0,
  0x072f,
  0xf078,
  0xf084,
  0xe455,
  0x13d5,
  0x056a,
  0xf15c,
  0x1011,
  0x2893,
  0x2201,
  0xde10,
  0xf7d3,
  0x09e4,
  0xe634,
  0xd11e,
  0xeeb4,
  0x1f9e,
  0x0e98,
  0x0876,
  0xea08,
  0xe92d,
  0x0130,
  0xe1f5,
  0xe6cd,
  0xd29b,
  0xfd92,
  0x03e8,
  0x0cd3,
  0x00f8,
  0x0190,
  0xef6d,
  0xfb91,
  0xe87a,
  0xdc40,
  0xf545,
  0x110f,
  0x07fe,
  0xe36e,
  0xe2cd,
  0xfdd7,
  0xecd1,
  0xe7e8,
  0xfcbf,
  0x0432,
  0xe075,
  0xf913,
  0xfb23,
  0x0244,
  0xee37,
  0x19bd,
  0x089c,
  0xf869,
  0x1038,
  0x1218,
  0x0c54,
  0xf73a,
  0xf245,
  0xfedd,
  0xd908,
  0xe3e8,
  0xe039,
  0x07b8,
  0x0487,
  0x0d15,
  0x008a,
  0xfbdc,
  0x00bd,
  0xfe93,
  0x0bdb,
  0xde81,
  0x070f,
  0x1055,
  0xfdd7,
  0x08eb,
  0x221f,
  0x2725,
  0x1536,
  0x0b85,
  0x1991,
  0x0306,
  0xfe62,
  0x006f,
  0xdc07,
  0xd9bd,
  0xddd4,
  0x0619,
  0xffd9,
  0xed25,
  0xfd70,
  0xea54,
  0xf4bd,
  0x1507,
  0xed6d,
  0xe9fa,
  0x1071,
  0xfdf0,
  0x1475,
  0x03f2,
  0x0bd5,
  0xfe26,
  0x186b,
  0x1e99,
  0x1161,
  0x1b55,
  0x0d67,
  0x0f4f,
  0x084b,
  0x119b,
  0x0ce0,
  0xf9fd,
  0x0ba1,
  0xe9a4,
  0xfea2,
  0x0bd4,
  0xf40d,
  0x0d26,
  0x0ad9,
  0xfca2,
  0xf3f7,
  0xe674,
  0xde83,
  0xf7bb,
  0xf52a,
  0x0528,
  0xfa61,
  0xff97,
  0x06cf,
  0x1073,
  0x0911,
  0x0204,
  0x122b,
  0xf67c,
  0xfd44,
  0x0a57,
  0x089f,
  0x0b4b,
  0xec52,
  0xfdf4,
  0xfae9,
  0x131a,
  0x0d50,
  0xef0f,
  0x0537,
  0xfba0,
  0xddfe,
  0xf4ff,
  0xc8bd,
  0xcbac,
  0xfa71,
  0xf180,
  0xe806,
  0xfc3e,
  0x031d,
  0x13a5,
  0x1524,
  0x1a01,
  0xfff1,
  0x1eb2,
  0x1e95,
  0x05de,
  0xf204,
  0xf69e,
  0xfbd6,
  0xf68b,
  0xf91c,
  0xec29,
  0x0978,
  0xebbd,
  0xeb5a,
  0xddb0,
  0xf364,
  0x07ef,
  0xda8b,
  0xdd41,
  0xd520,
  0xebfb,
  0xdb1e,
  0xe21e,
  0xe51d,
  0xf880,
  0xf319,
  0x0d4e,
  0xe55e,
  0xd94c,
  0xf15b,
  0xe058,
  0xe938,
  0xe8d8,
  0xdfb4,
  0x07d7,
  0xe5a6,
  0xd6e9,
  0xc61b,
  0x2355,
  0xeb06,
  0xe6c0,
  0xfc9b,
  0xfd35,
  0xf72d,
  0xf62a,
  0xf030,
  0xfccc,
  0x0f5f,
  0xf2d7,
  0xf044,
  0xe883,
  0xe480,
  0xdfde,
  0xb34e,
  0x967f,
  0xb18f,
  0xdaf1,
  0xca19,
  0xd8ec,
  0x2503,
  0x2d3f,
  0x1e66,
  0x02d0,
  0xfcd7,
  0x0380,
  0xf0fa,
  0xd8d5,
  0xf077,
  0x01cf,
  0x09aa,
  0x10ef,
  0x0345,
  0x0273,
  0xe0f3,
  0x03e2,
  0x085d,
  0xe607,
  0x0a0b,
  0xf29d,
  0xfc0c,
  0xffde,
  0xe9a7,
  0xe7ed,
  0xeaf5,
  0xfc6c,
  0xf116,
  0x091c,
  0x02b3,
  0x09c2,
  0x0530,
  0xf693,
  0xe5b8,
  0x0a87,
  0x0bb5,
  0x051c,
  0x105b,
  0x0492,
  0x1315,
  0x0dab,
  0x10a8,
  0xfa33,
  0xec2e,
  0xf69a,
  0xe09b,
  0x04ac,
  0x0b8f,
  0xf4f9,
  0xe55e,
  0xf983,
  0xf0f8,
  0xfdc5,
  0x00b1,
  0x0285,
  0x03a6,
  0xfd30,
  0xfd0f,
  0xf2b6,
  0xf808,
  0xfc6b,
  0x054d,
  0x0f5b,
  0x1408,
  0xe194,
  0xdb40,
  0xfa5b,
  0xeb21,
  0xed51,
  0xdbbc,
  0xe344,
  0xf67d,
  0xd539,
  0xd847,
  0xef3e,
  0xf462,
  0xf1c1,
  0xfdf2,
  0xfcb5,
  0x0880,
  0x08d3,
  0x02b1,
  0x2b09,
  0x13b0,
  0xfaac,
  0x1763,
  0xf94c,
  0xcfff,
  0x0c93,
  0xf6ff,
  0xdcbb,
  0xee5c,
  0xeadf,
  0x0532,
  0x0736,
  0xff64,
  0xef25,
  0x1992,
  0xf200,
  0x0a4f,
  0x088e,
  0x0835,
  0x24e3,
  0xe974,
  0xe007,
  0xe035,
  0x0eb1,
  0xf1ae,
  0xed83,
  0xd964,
  0xebc5,
  0x0251,
  0xfcde,
  0xf7ad,
  0xf16d,
  0xffa0,
  0xe68c,
  0x0c30,
  0x015c,
  0xeb7a,
  0x0a80,
  0xf60b,
  0xfe9c,
  0xee5e,
  0x16ff,
  0x141e,
  0xfdf6,
  0xff79,
  0x0822,
  0x0e95,
  0x081e,
  0xfad0,
  0xf28d,
  0x1d30,
  0x06f9,
  0xeb0f,
  0x023c,
  0x0a90,
  0x057c,
  0x1a54,
  0xf94c,
  0xf7b9,
  0x1fd9,
  0x0fb2,
  0xeeb9,
  0x02ea,
  0x07f3,
  0x04b5,
  0x0ca3,
  0xfbfa,
  0xef5a,
  0x007c,
  0xf76b,
  0xf351,
  0x0740,
  0xffef,
  0xf76b,
  0xe655,
  0xd375,
  0xee0d,
  0x0a5d,
  0x0494,
  0x0b7a,
  0xdef4,
  0x1452,
  0x2ef4,
  0x1559,
  0x13b7,
  0x2b61,
  0xc2f0,
  0xe51d,
  0x231a,
  0xff06,
  0xe922,
  0xd4d8,
  0x020d,
  0xd5de,
  0xea0d,
  0xfda3,
  0x0e6d,
  0x05cd,
  0xfc87,
  0xff99,
  0x060d,
  0xf867,
  0xe10a,
  0xf14f,
  0xfe76,
  0xf830,
  0xeb38,
  0x0919,
  0x0788,
  0x11dc,
  0xf15e,
  0xed1d,
  0xf35a,
  0xf873,
  0xfe7f,
  0xffd9,
  0x28e7,
  0xfe74,
  0xbed0,
  0x31e2,
  0x2108,
  0xd832,
  0x2d0b,
  0x1dfd,
  0xf906,
  0xed15,
  0x2fb9,
  0xee61,
  0xebb0,
  0xfc10,
  0x2ade,
  0xdcc8,
  0xf13d,
  0xda3a,
  0x0224,
  0x0426,
  0x2050,
  0xeb87,
  0x1694,
  0x1f7e,
  0xfc5e,
  0xf55d,
  0xe6b9,
  0xf135,
  0xfa63,
  0x0cf1,
  0xe30a,
  0xec56,
  0x08f1,
  0xec7a,
  0xe6d5,
  0xf406,
  0x00cc,
  0xaf01,
  0xc6b4,
  0x15d2,
  0xf4fb,
  0xeaf8,
  0x3c8f,
  0x2909,
  0x0631,
  0x14f8,
  0xfee8,
  0xb8fa,
  0x23e3,
  0x3a48,
  0xe417,
  0x331a,
  0x3c83,
  0xe98b,
  0xf7b1,
  0xf9e3,
  0x0aab,
  0xf199,
  0x2806,
  0x0b7d,
  0xf6f7,
  0x0ea2,
  0xf784,
  0xd4a1,
  0x1620,
  0x0788,
  0xffac,
  0xff66,
  0x2033,
  0x00d3,
  0xd98e,
  0x11b9,
  0x06b0,
  0xbe88,
  0xbc1b,
  0x2639,
  0x04c7,
  0xb9ab,
  0x32ad,
  0x2149,
  0xe38f,
  0x126f,
  0xf2ac,
  0xe92f,
  0x454c,
  0xdde1,
  0xd645,
  0x32e8,
  0xdffd,
  0xa334,
  0x07e2,
  0x05be,
  0x1910,
  0xeda2,
  0xf89e,
  0xf608,
  0x0f01,
  0x0d1e,
  0xfb56,
  0xec35,
  0x0418,
  0x0c9d,
  0x06be,
  0xf398,
  0xf498,
  0x07d9,
  0xf183,
  0xfd29,
  0xf445,
  0xf074,
  0x0747,
  0x0a5a,
  0x1c93,
  0x1c5e,
  0xfff8,
  0xee3b,
  0xfb70,
  0xfe04,
  0xf991,
  0xfad4,
  0x05ef,
  0xf069,
  0xd836,
  0x0954,
  0xf4b0,
  0xf1f5,
  0xfc3d,
  0xe866,
  0xfe91,
  0xd832,
  0x1830,
  0x0ef6,
  0x0cef,
  0xeece,
  0xe9e0,
  0xf888,
  0x043c,
  0xfbf0,
  0xf1ed,
  0xdf5c,
  0x076e,
  0x00e6,
  0xdc82,
  0x15d4,
  0x23cc,
  0xefb0,
  0x107b,
  0x2934,
  0xeef2,
  0xe0d5,
  0x298f,
  0x0ff3,
  0xbacc,
  0xe2d3,
  0xf560,
  0xf78c,
  0x0039,
  0xf38f,
  0xf60e,
  0x0d60,
  0x0fdd,
  0x051e,
  0x1d19,
  0x00f4,
  0xefa0,
  0x0aeb,
  0xf7e5,
  0xfba3,
  0x12a9,
  0x0908,
  0x098c,
  0x068e,
  0xf7fe,
  0xe062,
  0xfbc5,
  0xfcbf,
  0x0b1f,
  0xf281,
  0x0731,
  0x06b3,
  0xbe14,
  0xeb71,
  0xfa85,
  0x0968,
  0x117a,
  0x14b6,
  0xceff,
  0xe782,
  0x0beb,
  0xe209,
  0x06d2,
  0x13e6,
  0xdf8e,
  0xddf9,
  0x1a50,
  0xf7a0,
  0xda93,
  0x28b2,
  0x0024,
  0xf00b,
  0xf87b,
  0x0bd7,
  0xe66b,
  0xf290,
  0x0ced,
  0x054e,
  0xfa90,
  0x0dbc,
  0xffda,
  0xf081,
  0x00ed,
  0xe3b8,
  0xd98e,
  0x00dc,
  0xfd2f,
  0xf283,
  0xe3bd,
  0xfeaa,
  0xecff,
  0x0b6c,
  0x2c56,
  0xef3d,
  0x0e14,
  0x0fe3,
  0xfa6f,
  0x0c1d,
  0x1dfb,
  0xf988,
  0xe370,
  0x089e,
  0xfc18,
  0x0a0a,
  0xf2aa,
  0x0648,
  0x0851,
  0x0d62,
  0xd853,
  0x1af5,
  0x1d0f,
  0xccf4,
  0x2450,
  0x2c7f,
  0xed96,
  0x01c2,
  0xf97a,
  0x152a,
  0x015b,
  0xedba,
  0xf0d5,
  0x008f,
  0xc2c6,
  0x06c8,
  0xf5a3,
  0x12d9,
  0xfbc3,
  0x0dac,
  0x06d1,
  0x0838,
  0x0285,
  0x0e6a,
  0x0e5e,
  0x0670,
  0x00ff,
  0xea0f,
  0x1fec,
  0x05f1,
  0x038f,
  0x1052,
  0x1130,
  0x04c5,
  0xe034,
  0xece6,
  0xf385,
  0x0b25,
  0x13dd,
  0x0e72,
  0x02c6,
  0x1f14,
  0x0ba6,
  0xf77b,
  0xfee4,
  0xe904,
  0x15ee,
  0x0bad,
  0xf253,
  0x01ea,
  0x01c9,
  0xfd0e,
  0xeb40,
  0xce3b,
  0xf845,
  0x162f,
  0x069b,
  0x18c0,
  0x00ea,
  0x0573,
  0x0110,
  0xf8b3,
  0xfb28,
  0x0663,
  0xf542,
  0xfec1,
  0xf75a,
  0xefaa,
  0x096e,
  0x1d6f,
  0xedf8,
  0xdce1,
  0xf1cb,
  0xfc02,
  0x0bd8,
  0xee8b,
  0x0974,
  0x2b42,
  0x1fbf,
  0x1ceb,
  0x15da,
  0xf123,
  0x1655,
  0x174a,
  0x0898,
  0x0724,
  0x0720,
  0x0bd6,
  0xe128,
  0xdc33,
  0xfb83,
  0x04e6,
  0x0973,
  0xfde2,
  0xf436,
  0x0158,
  0x1173,
  0xd4b1,
  0xd32b,
  0xebca,
  0x0adf,
  0x0856,
  0x09e8,
  0x0324,
  0x0ae9,
  0x05c0,
  0xee60,
  0xd53d,
  0xe66c,
  0xf2de,
  0xe6fa,
  0xef14,
  0xf6a8,
  0xe35d,
  0xff3e,
  0xd817,
  0xe6df,
  0x0082,
  0xe6e2,
  0xecff,
  0xea5e,
  0xf154,
  0xec1e,
  0xfbcc,
  0xf723,
  0xe2ae,
  0xfed1,
  0x0c26,
  0xf3e6,
  0x04e8,
  0xfcdb,
  0xfb65,
  0x02d5,
  0xc4e6,
  0xc03a,
  0xce0a,
  0x405a,
  0x2aca,
  0x3181,
  0x620e,
  0x5927,
  0x69a5,
  0x25a6,
  0x0d3a,
  0x042a,
  0x2ae8,
  0x2aa4,
  0x1b74,
  0xfefa,
  0x1b92,
  0x1716,
  0xf076,
  0xf916,
  0xe4ac,
  0xf96c,
  0xf61f,
  0xf466,
  0xf468,
  0x0b76,
  0x03a8,
  0xebb5,
  0xe0ed,
  0xe215,
  0x0403,
  0x0e78,
  0xfa5b,
  0x0267,
  0x22dc,
  0x1d22,
  0xfda7,
  0x0a97,
  0xf2f0,
  0xff92,
  0x2b6f,
  0x1057,
  0x06c5,
  0x096c,
  0x0dcf,
  0xf889,
  0xf69c,
  0xf465,
  0xf6ba,
  0xf06f,
  0x08bb,
  0x0800,
  0xf943,
  0xf264,
  0xf965,
  0xea5f,
  0xda4d,
  0x187b,
  0x1578,
  0x1a28,
  0x03dd,
  0x27dd,
  0x2cba,
  0xdfa1,
  0xd372,
  0xdbd9,
  0x0cad,
  0xf7ea,
  0xf73d,
  0x155c,
  0x0cc9,
  0x1fdb,
  0xdf83,
  0xd0fb,
  0xe9b3,
  0xf7a7,
  0xf5ad,
  0xea7d,
  0xf3d4,
  0x00bd,
  0x00bb,
  0x0b7c,
  0xddd3,
  0xdb08,
  0xfc58,
  0x0eb4,
  0xeb40,
  0x107d,
  0x2b07,
  0x278d,
  0xf54f,
  0xeb8c,
  0xe0bd,
  0xe48a,
  0xe3f8,
  0xe68c,
  0xfab0,
  0xf58e,
  0xfd70,
  0x0070,
  0xe251,
  0xe146,
  0x081d,
  0xe940,
  0xf0c2,
  0xfc9e,
  0x09f2,
  0x2993,
  0x108b,
  0x1991,
  0x10c8,
  0xfce5,
  0xf08e,
  0x0184,
  0xe8a3,
  0xe5fe,
  0xfadc,
  0xf53b,
  0xef2b,
  0xe807,
  0x0a0d,
  0xfbab,
  0xfc3d,
  0x003e,
  0xee62,
  0x0594,
  0xfc94,
  0xfc61,
  0xea0c,
  0x1316,
  0x20c1,
  0x126e,
  0x0e15,
  0x2142,
  0x30ab,
  0x0234,
  0xec1b,
  0xfafb,
  0xfb3b,
  0xe812,
  0xf777,
  0x1309,
  0xf838,
  0x004d,
  0x0336,
  0xee03,
  0xf1a1,
  0x0620,
  0xe11e,
  0xf58b,
  0x043d,
  0x1779,
  0x0701,
  0x0883,
  0xff0d,
  0x0154,
  0x0910,
  0x02eb,
  0xf6bb,
  0xf4d2,
  0xf388,
  0xf37a,
  0xfb6d,
  0xfbd3,
  0xe23a,
  0xfc6b,
  0x1299,
  0x0b36,
  0x1c43,
  0x32a2,
  0x14c1,
  0xe0f2,
  0xfa1b,
  0xe635,
  0x021f,
  0x1873,
  0x037f,
  0xf3f6,
  0xf68b,
  0xe134,
  0x01d9,
  0x0b57,
  0x041f,
  0x12d9,
  0xf741,
  0xfbca,
  0x1f8c,
  0xf1bd,
  0xf267,
  0xf960,
  0xda7e,
  0xe8fc,
  0x01f6,
  0xf36e,
  0xfb0d,
  0xe642,
  0xf13c,
  0x0fe8,
  0xde57,
  0xe882,
  0xfa0f,
  0xf4d3,
  0xe8ec,
  0xf774,
  0xee2b,
  0x03d4,
  0x0222,
  0x093a,
  0x08b3,
  0x06b1,
  0x0592,
  0xfac1,
  0x004e,
  0x15f6,
  0x035a,
  0x0cd9,
  0xeb5f,
  0xfd6b,
  0xed3e,
  0x117a,
  0x1d84,
  0xf145,
  0xe261,
  0xee5a,
  0xf913,
  0xd7aa,
  0xec17,
  0xdb1a,
  0x13c0,
  0x08ef,
  0x05de,
  0x005a,
  0xf3a3,
  0xfa77,
  0xeeec,
  0xf180,
  0xea0c,
  0x0833,
  0xf13d,
  0xdb9a,
  0xfd63,
  0xe74b,
  0xf080,
  0x097b,
  0x11fb,
  0x15ac,
  0x1408,
  0x1651,
  0x1695,
  0x07d8,
  0x1c4f,
  0x1a83,
  0xeae5,
  0xe555,
  0x00b9,
  0xd3bc,
  0xfdbd,
  0xf510,
  0x0614,
  0xfa02,
  0x0067,
  0x0ffb,
  0xffd1,
  0x0bbc,
  0x17be,
  0x1b14,
  0x0708,
  0x066f,
  0x0e8a,
  0x0e92,
  0xf6a0,
  0x1472,
  0x089a,
  0x1875,
  0x2a1f,
  0x1d81,
  0xfed0,
  0xff17,
  0xf8ac,
  0xed34,
  0x01e6,
  0x0589,
  0xf68d,
  0xfb55,
  0x0a83,
  0xf9cb,
  0x0675,
  0x14a3,
  0xd9be,
  0xc4f3,
  0xdc86,
  0xd97f,
  0xd42b,
  0xdb7b,
  0xea76,
  0xe5c5,
  0xf786,
  0xeb68,
  0xf461,
  0xee6e,
  0xc3cd,
  0xec18,
  0xea83,
  0xe8df,
  0xffa4,
  0xf968,
  0x0c45,
  0xfe8a,
  0x07f0,
  0x0fa5,
  0xfee3,
  0xe607,
  0x047c,
  0xea15,
  0x0b58,
  0xd0d9,
  0xd4f6,
  0xed95,
  0x05f0,
  0x1397,
  0x011d,
  0xf673,
  0xf6c8,
  0xe108,
  0xeffc,
  0xf32c,
  0xf768,
  0xfe9a,
  0xf254,
  0x006d,
  0xf755,
  0xfeb1,
  0x0ba1,
  0x02d1,
  0x18fa,
  0x0958,
  0x14df,
  0xffb0,
  0xfd0a,
  0x1209,
  0x0197,
  0x05a8,
  0xf563,
  0xebcf,
  0xe989,
  0xf6c3,
  0x00cd,
  0xef11,
  0xf27a,
  0xf4b7,
  0xffc1,
  0x0d99,
  0x0292,
  0x037c,
  0x00d6,
  0xfecb,
  0xff78,
  0x0b97,
  0x096c,
  0x0882,
  0x0211,
  0x0d81,
  0x10d7,
  0x060d,
  0x0d0f,
  0x1306,
  0x097a,
  0x0445,
  0x1321,
  0xf6ab,
  0xeff8,
  0xdf2c,
  0xfe75,
  0xe47b,
  0xe676,
  0xf96e,
  0x0f68,
  0x0127,
  0xec47,
  0xed82,
  0x02e5,
  0x1412,
  0x1153,
  0x1aa0,
  0x194b,
  0x1028,
  0x0e50,
  0xdde1,
  0xf4b5,
  0x0f67,
  0x15ba,
  0x123f,
  0x0f0e,
  0xdc56,
  0xf3f0,
  0xf8e4,
  0x04f6,
  0x1244,
  0x01e8,
  0xf2fb,
  0x0015,
  0xe2f2,
  0xec56,
  0xfc94,
  0xde64,
  0xfc88,
  0xf7dc,
  0xf42a,
  0xeab9,
  0xf184,
  0x05c0,
  0xf563,
  0x01c8,
  0x15c2,
  0xdfef,
  0xe03d,
  0xeb65,
  0xd5f0,
  0xdf5f,
  0xe66e,
  0xf11d,
  0xed9b,
  0x1069,
  0x004e,
  0xf459,
  0xf216,
  0x0d83,
  0x097f,
  0x17cc,
  0x159c,
  0xffad,
  0x182c,
  0x0d88,
  0xf81c,
  0xf819,
  0x2585,
  0x049b,
  0x00d3,
  0x1b0a,
  0xf1bb,
  0xf68d,
  0xe131,
  0xf9f7,
  0x06bf,
  0xcf21,
  0xdab0,
  0xfd76,
  0x05c7,
  0xfcf5,
  0xf6d3,
  0xfb98,
  0xfeda,
  0x0138,
  0x02d2,
  0xfca8,
  0xff3d,
  0x04b4,
  0xf869,
  0x0024,
  0x1a72,
  0xf462,
  0xe4f5,
  0xefdd,
  0xdf92,
  0xfc3c,
  0xd715,
  0xd90e,
  0x3130,
  0xfb10,
  0x09c3,
  0x0467,
  0xfef5,
  0xfefd,
  0x0677,
  0x0fec,
  0x01a9,
  0xf928,
  0x024b,
  0x2f9e,
  0xfe3e,
  0xf400,
  0x0bb1,
  0xe7c4,
  0xe679,
  0xfb27,
  0xf812,
  0xf320,
  0x1097,
  0x0e09,
  0xff7c,
  0x0a33,
  0xe39b,
  0x14cb,
  0x1e96,
  0xe016,
  0x17ce,
  0x1d83,
  0x0078,
  0xfccf,
  0x0e29,
  0x09cd,
  0xfa15,
  0xfa3e,
  0x0844,
  0xf9ac,
  0xce06,
  0xf34a,
  0xfc94,
  0xfce6,
  0xfba4,
  0xe7de,
  0xff6f,
  0x0766,
  0x0f08,
  0xe989,
  0xe72f,
  0xe6a2,
  0xe5d1,
  0xed72,
  0xf3f7,
  0x0927,
  0x2063,
  0xf718,
  0xfc54,
  0x05f2,
  0x0725,
  0x0ba8,
  0xed5b,
  0xf8b4,
  0xf809,
  0xda61,
  0x0f4f,
  0x270c,
  0xfa83,
  0x17e3,
  0x355c,
  0xf5e2,
  0x05a2,
  0x130b,
  0xe76c,
  0x0b46,
  0x26df,
  0x198f,
  0x1aa0,
  0x177d,
  0xeb87,
  0xf8ca,
  0xf943,
  0xe852,
  0x009d,
  0x0354,
  0xe495,
  0x0b68,
  0x002c,
  0x017a,
  0xf4f3,
  0x1cd8,
  0x0b39,
  0xe6f6,
  0xf187,
  0xe268,
  0x01a6,
  0xe11c,
  0xe3f5,
  0x0962,
  0xee8a,
  0x0a21,
  0xf5fb,
  0x1898,
  0xfbf2,
  0x0e17,
  0x1e27,
  0xfb68,
  0x264f,
  0x1722,
  0xe649,
  0x3085,
  0x2504,
  0xe65b,
  0x2360,
  0x1b56,
  0xc452,
  0x2be0,
  0x134a,
  0xc7ce,
  0x2203,
  0x14ef,
  0xee2e,
  0xff62,
  0xf75e,
  0xd993,
  0xe937,
  0xe0f3,
  0xe6c7,
  0xfb0f,
  0xf346,
  0xfc73,
  0x1354,
  0x182f,
  0xdd20,
  0x26af,
  0x1533,
  0xf4e1,
  0x12ab,
  0xffe3,
  0xf72f,
  0x002d,
  0xefad,
  0xca6d,
  0xe0ba,
  0xf16f,
  0x07c8,
  0xeb27,
  0x0657,
  0x066e,
  0xdd37,
  0x09a5,
  0xfe6c,
  0x0136,
  0x16bf,
  0x0a4a,
  0xfda4,
  0xea78,
  0xd8d3,
  0x00c4,
  0xed2e,
  0xec15,
  0xf129,
  0xf197,
  0xf4e3,
  0x030a,
  0xfb47,
  0xf588,
  0xf325,
  0xf47d,
  0xdf5e,
  0xedc0,
  0xda89,
  0x1198,
  0x0a12,
  0x1ed9,
  0xf899,
  0x14db,
  0x0a8a,
  0xdfa3,
  0x25c6,
  0x1a2a,
  0xdf2d,
  0xebdc,
  0x00be,
  0xf3ca,
  0x08a4,
  0x1082,
  0x0ac0,
  0x0a1c,
  0x0c10,
  0x0e73,
  0x2c92,
  0x1f19,
  0xf97a,
  0x0935,
  0x0f49,
  0xca7d,
  0xe63d,
  0xe319,
  0xdc84,
  0x0289,
  0xff3d,
  0xffa4,
  0xfc3b,
  0xf73a,
  0xda7b,
  0xe04c,
  0xf2fe,
  0x045b,
  0xf9ab,
  0xfc7c,
  0xeb9b,
  0xfd92,
  0xf921,
  0xea2b,
  0x0774,
  0xf68e,
  0x0d30,
  0x024c,
  0xd60e,
  0xe580,
  0xf1fc,
  0xe871,
  0xf54a,
  0xe74b,
  0xd15e,
  0xe9c1,
  0x0da2,
  0x0131,
  0x04c6,
  0xfcc6,
  0x0b7f,
  0xea29,
  0x0d4d,
  0x17d0,
  0x1667,
  0x2965,
  0x0336,
  0xe76b,
  0x03a7,
  0xfbb6,
  0xd2be,
  0xf823,
  0xf266,
  0xde7d,
  0xefc8,
  0xf6b3,
  0x0598,
  0xd26a,
  0xf9ee,
  0x0a5c,
  0xf92c,
  0x1d7f,
  0x0f08,
  0x2027,
  0x11da,
  0xf15e,
  0x068c,
  0xd9ec,
  0x0fc0,
  0xe4e7,
  0xded9,
  0x1261,
  0x210f,
  0x28e3,
  0xfd5d,
  0x05fa,
  0x2113,
  0xe873,
  0xfb23,
  0xf2e6,
  0x0b00,
  0x1408,
  0x0a77,
  0xf976,
  0xf68e,
  0xf2ef,
  0xe688,
  0x0292,
  0x05d1,
  0xf002,
  0xf594,
  0x01b0,
  0xfc32,
  0x0201,
  0x03f1,
  0xfc37,
  0x0433,
  0x0d31,
  0x065d,
  0xf508,
  0xe938,
  0xfd61,
  0xf6af,
  0xf1ca,
  0xf7d4,
  0xfc8d,
  0x0321,
  0xff98,
  0x01f8,
  0xf25a,
  0xfe1a,
  0xfd2a,
  0x133d,
  0xec3d,
  0x0589,
  0x1403,
  0x0fbe,
  0xe310,
  0xf3ff,
  0xef51,
  0xfbb0,
  0xf97c,
  0xefd2,
  0x0175,
  0x0b01,
  0x06e8,
  0xf5dd,
  0xfe8f,
  0xf125,
  0x101d,
  0x144a,
  0x08bd,
  0x15bf,
  0x2232,
  0x0f57,
  0xf93c,
  0xede6,
  0xfcec,
  0xe74c,
  0x04aa,
  0xe584,
  0x00a6,
  0x02ef,
  0x08e7,
  0xee4c,
  0xf84c,
  0xde0c,
  0x1485,
  0x21a5,
  0x0c34,
  0x0aff,
  0x1eb2,
  0x17c6,
  0xe508,
  0xd8c4,
  0xeaaf,
  0xe72a,
  0xf473,
  0xff5c,
  0xf322,
  0xffaf,
  0x0105,
  0x07ab,
  0xf32d,
  0x0ba3,
  0xfeb5,
  0x203b,
  0x15ee,
  0x12da,
  0x2807,
  0x2416,
  0xf6fb,
  0xd877,
  0xf5a0,
  0xf5a4,
  0xdd8c,
  0xfea0,
  0xfd14,
  0xf7d3,
  0x0433,
  0x0794,
  0x045f,
  0x078c,
  0x0445,
  0x1aa0,
  0xfd95,
  0x0949,
  0x0fe0,
  0x0c73,
  0xfd41,
  0xfeec,
  0x0ef8,
  0xf95f,
  0x08d9,
  0xecea,
  0x1123,
  0x0dcb,
  0x0736,
  0xed61,
  0xe176,
  0xf530,
  0xeb8d,
  0xf227,
  0xfa40,
  0xed2f,
  0xf77d,
  0xf37e,
  0xb6b7,
  0xb821,
  0xc079,
  0xb02f,
  0xbcdb,
  0xc181,
  0xeadf,
  0xe394,
  0xfc59,
  0xf1dc,
  0xfb86,
  0xea4f,
  0xf3f5,
  0xf1cb,
  0xf8ae,
  0xe658,
  0xea8a,
  0xf376,
  0x2143,
  0x1712,
  0x0e8a,
  0xfc7c,
  0x125a,
  0x183e,
  0x089d,
  0x0806,
  0xfd1a,
  0xfef4,
  0xf823,
  0xf572,
  0x0bd3,
  0x0e91,
  0x1146,
  0x0791,
  0x0701,
  0x0f1e,
  0xfd65,
  0xe28d,
  0xea35,
  0xfcf0,
  0x0cba,
  0x0658,
  0x0f04,
  0x0e84,
  0x05db,
  0x072f,
  0x14c2,
  0x0051,
  0xefec,
  0x0bb2,
  0x0e87,
  0xf118,
  0x087a,
  0x1052,
  0xfbe9,
  0xf3ef,
  0xe56d,
  0x00ab,
  0xfd66,
  0xf364,
  0x0f5c,
  0x1d38,
  0x0d5d,
  0x058f,
  0x0242,
  0x03d7,
  0xee88,
  0xf5f0,
  0xf301,
  0xeb7b,
  0xee62,
  0xe601,
  0xe92c,
  0x027a,
  0xffcc,
  0x03fe,
  0x1bc2,
  0x09bc,
  0x14e1,
  0x1c24,
  0x1045,
  0xff8a,
  0xf328,
  0xfb78,
  0xe044,
  0xed41,
  0xf538,
  0x13c2,
  0x0437,
  0x1cf3,
  0x0cbd,
  0x10b3,
  0x11a0,
  0x0ba6,
  0x0fb0,
  0x0d59,
  0x1763,
  0x15bb,
  0x1c61,
  0xfa1f,
  0xe94f,
  0xf6db,
  0x164e,
  0x091a,
  0xf592,
  0xfdc6,
  0x01e1,
  0x0ea6,
  0xf15f,
  0xf094,
  0xd751,
  0xd432,
  0xeb3a,
  0xecc1,
  0x0013,
  0xfc13,
  0x04d1,
  0xfc2e,
  0x020a,
  0xee49,
  0x0bb6,
  0x1ecf,
  0x0289,
  0x2442,
  0x06d4,
  0x19e8,
  0xf724,
  0xd47e,
  0xf907,
  0xfc31,
  0x088c,
  0xf871,
  0x071e,
  0x08d3,
  0x06a6,
  0xf7d6,
  0x00fa,
  0xf4ee,
  0xf7dc,
  0x1783,
  0x020b,
  0x1a7a,
  0x2d37,
  0x02c2,
  0xf7e2,
  0xf39e,
  0xea8b,
  0xfa98,
  0x14ad,
  0xfbf6,
  0x02c4,
  0x205d,
  0x0890,
  0xfab9,
  0xdef8,
  0x152b,
  0x06d8,
  0x0853,
  0xfa33,
  0xeae3,
  0xfab9,
  0x0448,
  0x0278,
  0x06c5,
  0xf99e,
  0xf004,
  0x0dff,
  0x02f1,
  0x1002,
  0x12f4,
  0x04b2,
  0x051a,
  0x164f,
  0x0b02,
  0xfee6,
  0xf5ea,
  0xf57c,
  0xf7a2,
  0xf493,
  0x131a,
  0xebb5,
  0xef81,
  0x0535,
  0xf89d,
  0xe753,
  0xe4f8,
  0xfc22,
  0xf572,
  0x035a,
  0x0f32,
  0xfb14,
  0xfef8,
  0x0a9b,
  0xfeff,
  0x028d,
  0x186a,
  0x1110,
  0x0496,
  0xfd43,
  0x0b24,
  0x04e5,
  0x1376,
  0xfc60,
  0xf9d9,
  0xf306,
  0xf443,
  0xef7f,
  0x043c,
  0x155d,
  0x161c,
  0xfe00,
  0x0e44,
  0x0e00,
  0xf8e1,
  0xf115,
  0x0743,
  0x0a25,
  0xfef7,
  0x08bc,
  0xed63,
  0xecef,
  0xe8fb,
  0x07ce,
  0x0b77,
  0xfaae,
  0xf9a3,
  0xf6cc,
  0xf8ba,
  0x0e4b,
  0x0fbc,
  0xfeb0,
  0xf9a9,
  0xeda1,
  0xe44c,
  0xf1e2,
  0xedf5,
  0xfa76,
  0x0df6,
  0xff6d,
  0xf423,
  0xfad5,
  0xd8c0,
  0xf263,
  0x0bbf,
  0x155b,
  0xfb58,
  0xfe40,
  0x0c67,
  0xe3a2,
  0xd619,
  0xf1fc,
  0xdc30,
  0x18c9,
  0x04c8,
  0xfe4a,
  0x1701,
  0xf94c,
  0xf781,
  0x030e,
  0xf21c,
  0xf42c,
  0xfa0d,
  0x0b3b,
  0x032d,
  0x0182,
  0x109a,
  0x012a,
  0xf096,
  0x044a,
  0xfc8c,
  0xfa58,
  0xfd7a,
  0x03fc,
  0xf5c7,
  0xe8d3,
  0xf217,
  0x0fc4,
  0x0661,
  0x07ce,
  0x02cb,
  0xe6b2,
  0xf18b,
  0xf821,
  0xc9e0,
  0xddd0,
  0xdc5d,
  0xe10f,
  0xdc8e,
  0x19bb,
  0x06cf,
  0x1092,
  0x02ab,
  0xef65,
  0x0394,
  0xc7ab,
  0xc322,
  0xdaf8,
  0x0b7e,
  0x0a82,
  0x03d6,
  0x0713,
  0xfdeb,
  0xf380,
  0xe3c7,
  0xed4c,
  0x0053,
  0xfe6e,
  0xfb33,
  0x120d,
  0x10ac,
  0x0f39,
  0x0fbf,
  0xfacd,
  0xe6f3,
  0xe742,
  0x0700,
  0x12d6,
  0xfe5e,
  0x1423,
  0x0d92,
  0x07cb,
  0x0018,
  0xe615,
  0xeffe,
  0x07a5,
  0x03da,
  0xff37,
  0x01ba,
  0xff83,
  0x0055,
  0xeeb2,
  0x0bd5,
  0x0b43,
  0xf8a7,
  0xe812,
  0xe429,
  0x15ce,
  0x0182,
  0xfb60,
  0xf8a0,
  0xf516,
  0xece8,
  0x0cda,
  0x188b,
  0x1de8,
  0x0b09,
  0x0078,
  0xf94b,
  0xed48,
  0xf70c,
  0xfb40,
  0x13a1,
  0xf8f6,
  0xf863,
  0x09d4,
  0xf483,
  0xfb7e,
  0xf655,
  0xfa60,
  0x042d,
  0x054b,
  0x035c,
  0x1a37,
  0xfd3b,
  0xfe21,
  0xf31a,
  0xfe1e,
  0x0ebb,
  0x0dd4,
  0x16d5,
  0x0dc9,
  0x0974,
  0xfaf4,
  0x02f8,
  0xfb5c,
  0xe29a,
  0xd234,
  0xefe8,
  0x0367,
  0x0570,
  0xfe80,
  0x02d8,
  0xffb1,
  0xfde3,
  0x0bdc,
  0x034d,
  0x013f,
  0xfa4d,
  0xfcea,
  0xf9ba,
  0xfaa2,
  0xed0e,
  0x0119,
  0x119d,
  0xe617,
  0xe6cb,
  0xfb28,
  0x07b5,
  0xfa80,
  0xfe96,
  0xf9b3,
  0xf873,
  0xf0fd,
  0xe68b,
  0xf543,
  0xefdc,
  0x0748,
  0x1bac,
  0x05dd,
  0x0366,
  0xf88f,
  0xef2a,
  0xf2cf,
  0x007e,
  0x0cd4,
  0xfe3c,
  0xff7e,
  0x0fa5,
  0x033b,
  0xfc0e,
  0xe90b,
  0xcf67,
  0xede2,
  0xf7fc,
  0x0219,
  0x03a9,
  0x0741,
  0x01f3,
  0x0238,
  0xf66f,
  0x14f0,
  0x022a,
  0xfd9c,
  0xfb6b,
  0xfc30,
  0x0883,
  0x13b9,
  0xedbd,
  0x1094,
  0xfecf,
  0xf6d2,
  0x0cba,
  0x03b9,
  0xf9c9,
  0x0430,
  0xef70,
  0xefaf,
  0xfd3c,
  0xe359,
  0x0902,
  0x0d17,
  0xfa71,
  0xfb66,
  0x1083,
  0x06fb,
  0x0685,
  0xef12,
  0xeab2,
  0xe9f1,
  0xf801,
  0xf437,
  0xfee9,
  0x0045,
  0xec30,
  0xea15,
  0x1795,
  0x00f6,
  0xedd0,
  0xff6c,
  0x0338,
  0x0108,
  0xfb53,
  0x0361,
  0x0835,
  0xec21,
  0xdf75,
  0x0e23,
  0xede9,
  0x05fd,
  0x298c,
  0xed76,
  0x0fa8,
  0x0a0d,
  0xeba9,
  0xf48c,
  0x0373,
  0x028f,
  0x025a,
  0x10af,
  0xfbc6,
  0xf955,
  0xfa45,
  0xf279,
  0xf043,
  0xf59a,
  0x0aaa,
  0x0b08,
  0x0f91,
  0xdfc2,
  0x0407,
  0x1378,
  0xdf3b,
  0x0efc,
  0xf7a5,
  0xf289,
  0xdfcb,
  0xfa42,
  0xfbdb,
  0xf561,
  0x0442,
  0xee77,
  0xf5ec,
  0xe649,
  0x07f0,
  0x0055,
  0xf827,
  0xffac,
  0xf996,
  0xebcc,
  0xe580,
  0xfeba,
  0xfa96,
  0xfac0,
  0xfb10,
  0x0df3,
  0xf541,
  0x011b,
  0x1140,
  0xf86f,
  0xd819,
  0x033b,
  0x00bc,
  0x1584,
  0x0dfa,
  0xffb1,
  0x181c,
  0x09db,
  0x01dd,
  0xfd32,
  0xfbba,
  0x0a0a,
  0x05dc,
  0xf9d3,
  0x07cc,
  0x03d2,
  0x103a,
  0xe260,
  0xfa10,
  0xf5f6,
  0x09a5,
  0x0fc8,
  0x04bc,
  0x0541,
  0x13e9,
  0x1007,
  0xf5f9,
  0x1a5a,
  0x0968,
  0xef05,
  0x0594,
  0xf1ff,
  0x0bb9,
  0xf6dd,
  0x0097,
  0xee9a,
  0x016f,
  0xf0d6,
  0x081b,
  0x0daa,
  0xfd67,
  0x0623,
  0x040e,
  0xf6cf,
  0x071c,
  0x0058,
  0xe96e,
  0xfc59,
  0xe86e,
  0x1bc1,
  0xc845,
  0xc2fb,
  0xfc0b,
  0xea03,
  0xda82,
  0x1b44,
  0x0eba,
  0x02dd,
  0x1809,
  0xd6c0,
  0xcbef,
  0xff2a,
  0x0054,
  0xfb2a,
  0xe6d3,
  0xff2c,
  0x13d1,
  0x041d,
  0x0a26,
  0x021a,
  0x1205,
  0xf743,
  0x020f,
  0xfea7,
  0xfe98,
  0x050d,
  0x1252,
  0xfa13,
  0xee12,
  0x02a6,
  0xf072,
  0xfbe9,
  0x0672,
  0xf7a8,
  0x0cfe,
  0x214d,
  0xff4c,
  0x0014,
  0x0bdd,
  0xf9af,
  0xf739,
  0xfbeb,
  0xf62f,
  0xf5da,
  0xeb1f,
  0x1094,
  0x04c4,
  0x0e66,
  0xebca,
  0x060c,
  0x0ae7,
  0xedcd,
  0xff24,
  0x270f,
  0xf4f8,
  0xfb8c,
  0x03b5,
  0xfce2,
  0xd25d,
  0xe8db,
  0x07b4,
  0xff5b,
  0x0874,
  0xf1d0,
  0xecb0,
  0xf080,
  0x0c1e,
  0xf7c8,
  0x0bb1,
  0x092b,
  0x0b44,
  0x0eae,
  0x13c1,
  0x0d5c,
  0xf7d9,
  0x028d,
  0xfcd1,
  0xfdc2,
  0x0a88,
  0x1376,
  0x199b,
  0xf9ce,
  0x00b4,
  0x0354,
  0xf09b,
  0xda88,
  0x2050,
  0xebe6,
  0xff80,
  0x1112,
  0xf6b3,
  0xfa58,
  0x146b,
  0xff20,
  0x09ac,
  0x1cca,
  0xf8b7,
  0xf532,
  0x034a,
  0xfa45,
  0xf284,
  0xf89e,
  0x0bcb,
  0x1990,
  0x0b4d,
  0x0a82,
  0xfc3f,
  0x0e36,
  0xfd4e,
  0xf2b4,
  0x068a,
  0x01ea,
  0xe689,
  0xf02d,
  0xfb66,
  0x1b7c,
  0x2065,
  0x04a2,
  0x049e,
  0x15f3,
  0xf707,
  0xec26,
  0xfbca,
  0x00fc,
  0x0571,
  0x17b7,
  0xf16d,
  0x05a5,
  0xf9b9,
  0xf025,
  0xf110,
  0xff3b,
  0xf51d,
  0x125e,
  0x1309,
  0xede7,
  0x024d,
  0x1125,
  0xe171,
  0x00a2,
  0x05c5,
  0x0e11,
  0x1654,
  0x14f9,
  0xe9ae,
  0xfc98,
  0x1894,
  0xece3,
  0xe601,
  0x168a,
  0x0a69,
  0x1515,
  0x073d,
  0xd8bf,
  0x0ccf,
  0x16e7,
  0xd5f4,
  0x04d0,
  0x0da7,
  0x03fc,
  0x09ce,
  0x0b79,
  0xec13,
  0xf55f,
  0x026a,
  0xe8b9,
  0xe818,
  0xfcf5,
  0xfd14,
  0x0f1a,
  0x11a2,
  0x08ed,
  0xfc5d,
  0xef9a,
  0x1c67,
  0x1836,
  0x232c,
  0x0894,
  0xed86,
  0xf0e3,
  0xf3df,
  0xe659,
  0xd5c3,
  0xfa68,
  0xe4ca,
  0xf372,
  0x1266,
  0xf47d,
  0xf1f5,
  0x06de,
  0xf8b7,
  0xe06b,
  0xf1f7,
  0xd853,
  0x108f,
  0x1d2f,
  0x2129,
  0xff18,
  0xf457,
  0x1eb0,
  0xeee7,
  0xfc30,
  0xf789,
  0xecd1,
  0xe379,
  0xf0eb,
  0xe775,
  0xfbfd,
  0x069a,
  0xe934,
  0x0547,
  0xeddd,
  0xfce8,
  0xf483,
  0xffac,
  0xf099,
  0xf228,
  0x0db8,
  0x1454,
  0xfebf,
  0x029a,
  0x186a,
  0x106b,
  0xf90c,
  0xefdc,
  0x101f,
  0x0d03,
  0xf7d3,
  0x0641,
  0x1109,
  0x1465,
  0x2d08,
  0x0b99,
  0xf392,
  0x0b2c,
  0x2854,
  0x133d,
  0xf16f,
  0xfa0d,
  0xe84d,
  0xd683,
  0xecf7,
  0xe948,
  0xcc3b,
  0xb87c,
  0xd34d,
  0xe06b,
  0xbeaa,
  0xdda0,
  0xe2ea,
  0xee55,
  0xfef5,
  0xf3ab,
  0x173f,
  0xd9b6,
  0xf394,
  0xfc66,
  0xdbdf,
  0x0961,
  0xfb8e,
  0xff3a,
  0xf356,
  0x05f1,
  0xf6ea,
  0xfa14,
  0xdde9,
  0xf6f7,
  0xf70a,
  0x0409,
  0x0ad2,
  0xf8f5,
  0x1f1e,
  0xec22,
  0xe758,
  0xf9d7,
  0xf112,
  0xf5ef,
  0x0ab2,
  0x078c,
  0xbe2e,
  0xf498,
  0xfa28,
  0xbef5,
  0x0958,
  0xf032,
  0xebe2,
  0xdf36,
  0xf275,
  0x00af,
  0xf5ff,
  0x0f23,
  0xc72f,
  0xc5bc,
  0xcaa8,
  0x0f4f,
  0xede6,
  0xf940,
  0xffe8,
  0x0f62,
  0x0c6f,
  0x1505,
  0xf3bf,
  0xe4b0,
  0x144e,
  0x0cc5,
  0xf425,
  0x1ed9,
  0xfc4a,
  0x00b0,
  0xfd1c,
  0xe23f,
  0xde20,
  0xf1af,
  0x0d8e,
  0x0245,
  0x060f,
  0x0a4c,
  0xf872,
  0x144f,
  0x04f2,
  0x0ace,
  0x167e,
  0x1a5f,
  0xfb3e,
  0xec22,
  0x0113,
  0xfb38,
  0xfe06,
  0xfb8a,
  0xf74d,
  0x2100,
  0x016c,
  0xef0a,
  0x1146,
  0x0a08,
  0xf340,
  0xfa05,
  0xf8d6,
  0xf467,
  0x0df7,
  0x02a4,
  0x0ec6,
  0x0b75,
  0x0951,
  0xf4ef,
  0xf5ef,
  0xfa74,
  0x10eb,
  0xfd4f,
  0x066d,
  0x182c,
  0xfaac,
  0x00e6,
  0x19e9,
  0xfdc2,
  0x0475,
  0x0b7a,
  0x01fd,
  0x027f,
  0xee85,
  0x03a2,
  0x026b,
  0xf804,
  0x0439,
  0xfd1d,
  0x0f33,
  0xe772,
  0xedde,
  0xdf31,
  0x18d9,
  0xff1e,
  0x1ebc,
  0xf251,
  0xe757,
  0xf14f,
  0x17eb,
  0x1bc2,
  0x0cd7,
  0x0dd9,
  0x0d0e,
  0xf0b8,
  0xfe8e,
  0xf94f,
  0x061b,
  0xfbbe,
  0xfa60,
  0x10db,
  0x09f7,
  0x036a,
  0xf413,
  0x0b79,
  0x19f6,
  0x1fa7,
  0x0604,
  0xe808,
  0xe999,
  0x0b13,
  0x06c7,
  0x158c,
  0x191b,
  0x1cd8,
  0x05e3,
  0xfcea,
  0xf731,
  0xf1d1,
  0x172a,
  0x0a78,
  0xf50c,
  0xef78,
  0xf589,
  0x091b,
  0xfd44,
  0xef15,
  0xe6f3,
  0xea45,
  0xf5ab,
  0xf512,
  0x1120,
  0xe021,
  0x02ba,
  0x07a2,
  0xf71d,
  0xe56f,
  0xe1b1,
  0xfaba,
  0xba0e,
  0xe97a,
  0xf7ef,
  0xe9da,
  0xfb23,
  0xfd3a,
  0xd8a0,
  0xfb7e,
  0x119b,
  0xf50e,
  0x054b,
  0xfccc,
  0xff9e,
  0x064b,
  0x0f4e,
  0xfdba,
  0xd7e6,
  0xfe62,
  0xe8a7,
  0x14e6,
  0xf406,
  0xe9b8,
  0x01eb,
  0x018a,
  0xf932,
  0xede8,
  0xf6cb,
  0x052b,
  0xfaab,
  0xf658,
  0x05a4,
  0x1072,
  0xe878,
  0xf248,
  0x3f21,
  0xe6fd,
  0xf23e,
  0xfb3c,
  0x0763,
  0xeaa2,
  0x0c7d,
  0x140a,
  0x040c,
  0x00c1,
  0x1f48,
  0xfad0,
  0xf8a8,
  0xeb3c,
  0x0035,
  0x0401,
  0x0dbb,
  0x14e0,
  0xfcdf,
  0x0efb,
  0x11de,
  0xfcb9,
  0x18b0,
  0x1a98,
  0xefde,
  0x0567,
  0x1091,
  0xd6f2,
  0xf208,
  0x027a,
  0xe94c,
  0x015a,
  0x0521,
  0x07e2,
  0x102d,
  0x006b,
  0x1d23,
  0x0bf9,
  0xe57f,
  0xfa07,
  0x07fe,
  0xff6e,
  0x076b,
  0xef73,
  0x031b,
  0xe800,
  0xddd1,
  0xfd0a,
  0xfe56,
  0xdbd7,
  0xe89a,
  0xff84,
  0xd5a1,
  0xedad,
  0x089d,
  0xdab2,
  0x0457,
  0xf73d,
  0x072e,
  0xfb71,
  0x1b6c,
  0x1adb,
  0x03f8,
  0x18b5,
  0x0219,
  0xf4fe,
  0xf20f,
  0xe888,
  0xf7eb,
  0xef1f,
  0xea74,
  0x0906,
  0xedba,
  0xd6e0,
  0xea67,
  0x06e7,
  0xf8af,
  0xfb9b,
  0xdb0f,
  0x0a22,
  0x1888,
  0xefd9,
  0x0b96,
  0x1cc0,
  0x0675,
  0x2354,
  0x1229,
  0xffe5,
  0xde98,
  0x00b1,
  0xe1f3,
  0xa7cf,
  0xf15f,
  0xeedd,
  0xf2cd,
  0xfc6d,
  0x0c94,
  0xfe63,
  0xef30,
  0xedc6,
  0xeab3,
  0xedd0,
  0xebff,
  0x0eb3,
  0xf60f,
  0xe1bb,
  0x11c6,
  0x0046,
  0xc8c3,
  0x1387,
  0xf8c3,
  0x0185,
  0x0e59,
  0xe30a,
  0x40d9,
  0x57dd,
  0x3901,
  0x1f35,
  0x4c0a,
  0x6414,
  0x1c15,
  0x40ff,
  0x2c2a,
  0x0048,
  0x19d6,
  0xfd06,
  0x0b0e,
  0x08be,
  0xfeb7,
  0xfcb1,
  0xf094,
  0xfbe8,
  0xfc18,
  0xe4f1,
  0xefea,
  0x0870,
  0x0c3d,
  0x0e82,
  0xf9e1,
  0xe451,
  0xfeaf,
  0xea91,
  0xdc1e,
  0xdecf,
  0x1822,
  0x022c,
  0xfe4c,
  0x10b5,
  0x2524,
  0x1cc2,
  0x04df,
  0xf63b,
  0x137e,
  0xd8d3,
  0xe41f,
  0xfc7e,
  0xe7a6,
  0x0b2e,
  0x1419,
  0x0823,
  0xeecb,
  0xe702,
  0x1539,
  0xe5b3,
  0xdcf7,
  0xff84,
  0xefad,
  0xd803,
  0x03aa,
  0xff21,
  0x0b54,
  0xf862,
  0xdb65,
  0x03c7,
  0x1074,
  0x3134,
  0x0246,
  0xd0a3,
  0x243c,
  0x106e,
  0xe4ae,
  0x2b45,
  0x14fe,
  0xea96,
  0x0e9f,
  0xeae9,
  0xfe2a,
  0xf177,
  0xef92,
  0xee0b,
  0xdb8e,
  0x0308,
  0xf1aa,
  0xf539,
  0xe76e,
  0x0b09,
  0x0e44,
  0xf255,
  0x09ed,
  0x0514,
  0x095b,
  0x02b1,
  0x12df,
  0x1294,
  0x0191,
  0xcf68,
  0x0738,
  0xf9fa,
  0xe012,
