/* weights & biases */

#include <stdint.h>


// conv weights [shape=(32, 1, 5, 5), qi=-5, qf=21]
int16_t w_conv[] = {
  0xfb86,
  0xf1f4,
  0xe51b,
  0xe99c,
  0xf143,
  0x0c85,
  0x05a5,
  0x07c4,
  0x0c7c,
  0x10d0,
  0x15ba,
  0x1646,
  0x15ec,
  0x116a,
  0x069e,
  0x0026,
  0x0bf4,
  0x1394,
  0x1a3f,
  0x1e60,
  0xe35d,
  0xd8d9,
  0xe20f,
  0xdfcd,
  0xdfc1,
  0x2730,
  0x1e66,
  0x0eec,
  0xd564,
  0xedeb,
  0x1b70,
  0x3361,
  0xf1c1,
  0xcc46,
  0xe391,
  0x1e90,
  0x528b,
  0xde72,
  0xd9be,
  0xde44,
  0x4cea,
  0x01ff,
  0xf4f7,
  0xd7c3,
  0xdf56,
  0x25ce,
  0xf4a6,
  0xf21a,
  0xe55c,
  0xf331,
  0xd100,
  0xf10a,
  0x1045,
  0xf172,
  0x3580,
  0x1868,
  0xdd99,
  0xd2e9,
  0x3a1f,
  0x021c,
  0xf27b,
  0x15ac,
  0x1099,
  0x0754,
  0xe48d,
  0x0e7b,
  0x1fe4,
  0x161e,
  0xe377,
  0xe01d,
  0x11cb,
  0x0241,
  0xff48,
  0xec26,
  0xf9bb,
  0x0e78,
  0x0afd,
  0xf6a6,
  0xd293,
  0x0038,
  0x1cf8,
  0xe682,
  0xc146,
  0x05a1,
  0x324c,
  0xf5c4,
  0xcfd5,
  0x00db,
  0x00c9,
  0x1e6e,
  0xe197,
  0xde7d,
  0x321b,
  0x3621,
  0xe4c5,
  0xf621,
  0x2415,
  0x0f04,
  0xf912,
  0xf826,
  0x14e0,
  0x0d62,
  0xf806,
  0x0157,
  0xf475,
  0xf2d9,
  0x0ca5,
  0xf1c9,
  0x0ae3,
  0xf8e9,
  0xfc37,
  0x158b,
  0x144d,
  0xe556,
  0x090c,
  0xee66,
  0x1330,
  0x13c9,
  0xe9ff,
  0xf136,
  0xe2a0,
  0x0331,
  0x1e3e,
  0xfc22,
  0xfb6e,
  0xf08b,
  0xdf07,
  0xea57,
  0xef92,
  0x0d4e,
  0xfbbc,
  0x1270,
  0x1e7a,
  0x29b8,
  0x1b96,
  0x1bc0,
  0x1ad0,
  0x0053,
  0xe319,
  0xd336,
  0xe793,
  0xe40d,
  0xdcf7,
  0xfc92,
  0x059a,
  0x02b3,
  0x1209,
  0x0d44,
  0x0c57,
  0x0e1a,
  0xfb76,
  0x0eac,
  0x07ad,
  0x0ccd,
  0x04a9,
  0xf3f9,
  0x014a,
  0xfe5d,
  0x054d,
  0xf4f7,
  0xde96,
  0xed69,
  0xf61b,
  0xfdb0,
  0xfc33,
  0xeab8,
  0xdcc5,
  0xc7aa,
  0xb8a7,
  0xc9f7,
  0x2dee,
  0x369a,
  0x2ade,
  0x3f22,
  0x34d5,
  0x30d4,
  0x3781,
  0x1baa,
  0xfbe1,
  0xf000,
  0x29de,
  0x032e,
  0xcd9c,
  0xdaa6,
  0xd666,
  0x294d,
  0xd2e0,
  0xda76,
  0xeb0a,
  0x1788,
  0xfebf,
  0xd516,
  0xe6d2,
  0xfcf1,
  0x2482,
  0xd6fc,
  0xe905,
  0x1c67,
  0x2b47,
  0x0464,
  0x111d,
  0xda99,
  0x13c3,
  0xf48c,
  0x125f,
  0x1e68,
  0xdc53,
  0xf1ca,
  0xfa54,
  0x1038,
  0x12bc,
  0xf984,
  0xd952,
  0xff5f,
  0x226c,
  0x01be,
  0x17c0,
  0xd4b5,
  0xe025,
  0x36fc,
  0xed39,
  0x1937,
  0xedaf,
  0xdb9c,
  0x1cf3,
  0xddb9,
  0x41b1,
  0x1595,
  0xfead,
  0xf4ff,
  0xd034,
  0xda12,
  0x4074,
  0x076c,
  0xeaa2,
  0xf3a6,
  0xe636,
  0x1191,
  0x3781,
  0xf790,
  0xf114,
  0xd25c,
  0xed38,
  0x188f,
  0x18e2,
  0x2099,
  0xed0b,
  0xca7d,
  0xeb53,
  0x12b4,
  0x003e,
  0xfee7,
  0xfa76,
  0x0d34,
  0xf256,
  0xf14e,
  0x0575,
  0xf043,
  0x1e47,
  0xf0e9,
  0x0d6a,
  0x218c,
  0xd6c6,
  0x3dca,
  0xfc3c,
  0xe591,
  0x0808,
  0xbcdd,
  0x38d9,
  0xc7b2,
  0x0335,
  0x004c,
  0xf2b0,
  0x333a,
  0xe9b5,
  0xe11d,
  0xd871,
  0x11a2,
  0xe6d6,
  0xe57d,
  0x228d,
  0xfee9,
  0x2e8f,
  0x1e53,
  0x050b,
  0x008c,
  0xe457,
  0x142e,
  0xfecc,
  0xf5df,
  0x12f8,
  0xe58e,
  0x15bd,
  0x0456,
  0xf912,
  0x036c,
  0xee48,
  0x12b3,
  0xfc38,
  0xf144,
  0xdb9e,
  0xe7fa,
  0x078e,
  0x1f65,
  0x1c65,
  0xdc14,
  0xec3a,
  0xfbba,
  0x1e6f,
  0x4a6f,
  0xe022,
  0xe026,
  0xe971,
  0x0b70,
  0x277d,
  0xdb76,
  0xe8a5,
  0xea32,
  0x225d,
  0x122a,
  0xe089,
  0xf5a5,
  0xf7b1,
  0x203a,
  0x132f,
  0x0b0c,
  0xfda6,
  0x099e,
  0xf178,
  0xfaeb,
  0xf91c,
  0x029e,
  0xf783,
  0x000f,
  0xf5a7,
  0xfd30,
  0xf47b,
  0xf67e,
  0xfd51,
  0xfff4,
  0xf5e3,
  0xffde,
  0xfd15,
  0xfc98,
  0xfa30,
  0xf4c5,
  0xfc73,
  0xf424,
  0xfba9,
  0xfaeb,
  0x1d4d,
  0x2903,
  0x2387,
  0x1eff,
  0x2209,
  0x2482,
  0x2798,
  0x2aac,
  0x1cf3,
  0x0412,
  0xea85,
  0xedb7,
  0xf392,
  0xf6e2,
  0x0098,
  0xe384,
  0xca0e,
  0xc94c,
  0xda01,
  0xedc0,
  0xdf41,
  0xf65d,
  0xf633,
  0xf069,
  0xf8d7,
  0x0c80,
  0xf00d,
  0x05b6,
  0x15b3,
  0x02e4,
  0x0dac,
  0xd67a,
  0x18d7,
  0xe9f1,
  0xec37,
  0xff2e,
  0xfdf5,
  0x1152,
  0x0405,
  0x0739,
  0xe74d,
  0x205d,
  0xf83b,
  0xf1e7,
  0x05db,
  0x0501,
  0x0cf9,
  0xe58b,
  0x19c9,
  0xf647,
  0x01a2,
  0x0f0c,
  0x0e3c,
  0xfd54,
  0xf9e8,
  0xc4ac,
  0xb3b7,
  0xde72,
  0x1c5e,
  0x1926,
  0x0c30,
  0xfafa,
  0xcf8e,
  0xa8c0,
  0xdb18,
  0x361b,
  0x2a93,
  0x1c9c,
  0x06d6,
  0xd9c3,
  0x0be1,
  0x299c,
  0x1c59,
  0x30a4,
  0x1632,
  0x0d78,
  0xf117,
  0xc794,
  0x0b82,
  0x0fb0,
  0xec11,
  0xdba2,
  0x1cba,
  0x1d12,
  0x14d7,
  0xde6e,
  0xf991,
  0x0997,
  0x1913,
  0xf9c6,
  0xcb27,
  0x204d,
  0x0c0d,
  0x24eb,
  0x083b,
  0x379e,
  0x0fe8,
  0x09dd,
  0xdf61,
  0xcbac,
  0x1f23,
  0x08ea,
  0x0bd7,
  0x1a6e,
  0x1572,
  0x028a,
  0xd9ce,
  0x0244,
  0xe3d2,
  0xf696,
  0x09b5,
  0xf1dc,
  0x1258,
  0xfffa,
  0xeed3,
  0xec18,
  0xe6d1,
  0x05ca,
  0xf50e,
  0xdcba,
  0x06ee,
  0xfc8a,
  0x1ec4,
  0x1771,
  0xfde0,
  0x146b,
  0x023a,
  0x0393,
  0x0525,
  0xda6a,
  0xec4e,
  0x06bf,
  0xf0ee,
  0xf460,
  0x2e53,
  0xdbf4,
  0xd06c,
  0x1645,
  0x3249,
  0x0909,
  0x276b,
  0x0f3f,
  0x023e,
  0xd84e,
  0xee6e,
  0x0143,
  0x1687,
  0xf3e9,
  0xf9d8,
  0xfe6e,
  0xef89,
  0xf821,
  0xff57,
  0xfc18,
  0x0d53,
  0xfe07,
  0xf38b,
  0xf508,
  0xf55d,
  0x008a,
  0x05fe,
  0xf21c,
  0xf5be,
  0xefa6,
  0x088e,
  0xf7b5,
  0xf9f9,
  0xf10b,
  0xf399,
  0xfb60,
  0x0071,
  0xec1a,
  0xf8b2,
  0xfc58,
  0xf9bf,
  0xdf6f,
  0x2080,
  0x00bd,
  0xdc97,
  0x1758,
  0xe4b7,
  0x3cd1,
  0x05a5,
  0xcd93,
  0x11ab,
  0xd6a0,
  0x2266,
  0x0921,
  0xde42,
  0x235d,
  0xfd39,
  0xe6bf,
  0x0cf5,
  0xe161,
  0xf692,
  0x17a2,
  0xec98,
  0x2c88,
  0xf151,
  0x12f5,
  0x04ab,
  0xf29d,
  0x0be8,
  0xfb0e,
  0x0168,
  0xfe86,
  0x0d66,
  0xe316,
  0x1a67,
  0xf569,
  0xe567,
  0x0760,
  0x1cdb,
  0xe2a8,
  0x01b9,
  0x0b04,
  0xe1f3,
  0xf081,
  0x176b,
  0x047c,
  0x2153,
  0xfb51,
  0xf2a2,
  0xeeda,
  0x03c9,
  0xecfd,
  0xfa00,
  0xef2d,
  0xeeed,
  0xe906,
  0x1411,
  0x041d,
  0xf94f,
  0x1c32,
  0x0d4c,
  0xfaa5,
  0xf23b,
  0x04d9,
  0x05c4,
  0x104f,
  0x1650,
  0x149d,
  0x0d86,
  0x0b0e,
  0x0d58,
  0x13a5,
  0xf8b5,
  0xf52e,
  0x0f06,
  0x04ab,
  0x036b,
  0x05a6,
  0x0cfb,
  0x093d,
  0xe12e,
  0xdcc1,
  0x04f4,
  0x032f,
  0xfbfb,
  0x1307,
  0xe9e6,
  0xf16d,
  0xdf98,
  0xec78,
  0xdbd6,
  0x29ae,
  0x2bfc,
  0x1bd5,
  0x3092,
  0x1da3,
  0xe951,
  0xee76,
  0xeeae,
  0xf07e,
  0x065f,
  0x1fd1,
  0x1fb4,
  0x1e20,
  0x213d,
  0x3c29,
  0xff71,
  0xf27c,
  0xe37d,
  0xd524,
  0xce45,
  0xe0d1,
  0xe77a,
  0xe987,
  0xd8a7,
  0xe338,
  0xfb41,
  0x02c3,
  0x13dd,
  0x3386,
  0x15b0,
  0x0ea3,
  0x07de,
  0x02ce,
  0xe7ea,
  0xfa32,
  0xff6a,
  0x0085,
  0xf531,
  0x0e33,
  0xf3ae,
  0x09ac,
  0xeb9c,
  0x2bb1,
  0xe649,
  0x02f6,
  0xe743,
  0x218b,
  0xfca3,
  0xdd3d,
  0x17e8,
  0xf658,
  0x17ae,
  0xefd7,
  0xea2c,
  0x0e52,
  0x177a,
  0xe750,
  0xeed1,
  0x17c3,
  0xfcfe,
  0xf2ee,
  0xe7e1,
  0x0250,
  0x1be5,
  0x056e,
  0x1474,
  0x2d14,
  0xef17,
  0xd7fb,
  0xf6ba,
  0x141d,
  0x3121,
  0x0e23,
  0xd9ee,
  0xcfb3,
  0x004b,
  0xe9a1,
  0xf8dc,
  0x163c,
  0x043e,
  0xdee8,
  0xe910,
  0xf34e,
  0x143d,
  0x2d86,
  0xeb44,
  0xef39,
  0x0340,
  0x234f,
  0xe73e,
  0xea62,
  0x0948,
  0x28a5,
  0x17fd,
  0xe4f5,
  0xebb0,
  0x0629,
  0x1fe4,
  0xef61,
  0xeccc,
  0x007e,
  0x1663,
  0x0b47,
  0xf13a,
  0xf97b,
  0x0bc5,
  0x1897,
  0xf3c7,
  0xf287,
  0x01a2,
  0x1c86,
  0xe4a6,
  0xf2bc,
  0x0cfa,
  0xf57e,
  0x2305,
  0xfbf0,
  0xfdb1,
  0xf61b,
  0x0565,
  0x0df6,
  0xfaba,
  0xf14e,
  0x0593,
  0xfd46,
  0xf982,
  0xf923,
  0xfd21,
  0xffcd,
  0xe6da,
  0x1539,
  0x0cd0,
  0x0ad3,
  0x022c,
  0xf862,
  0x1d94,
  0x1d65,
  0xf398,
  0xcf87,
  0xf9f4,
  0xfd4c,
  0x3a3f,
  0x246a,
  0xf99a,
  0xe13f,
  0xd6d9,
  0xe721,
  0x0dbd,
  0x1084,
  0xdee0,
  0xf04a,
  0xf4b2,
  0x17e6,
  0x2563,
  0xf87a,
  0xe6a4,
  0xdcb5,
  0xf162,
  0x1a5a,
  0x2932,
  0x0609,
  0x0360,
  0xfdfb,
  0xe2fd,
  0xecef,
  0x0ebc,
  0x147b,
  0x0515,
  0xee73,
  0xeab5,
  0xf9ea,
  0xe159,
  0xdd45,
  0x0aa6,
  0x10b4,
  0xce3b,
  0xd7f5,
  0xfdd5,
  0x279b,
  0x2e5d,
  0x137f,
  0x22d4,
  0x1318,
  0xf699,
  0xe553
};

// conv bias [shape=(32,), qi=5, qf=11]
int16_t b_conv[] = {
  0x0015,
  0xfde9,
  0xfe85,
  0xfef0,
  0x0014,
  0xfe30,
  0xffaf,
  0xff7d,
  0x00e0,
  0xfe12,
  0xffd8,
  0xfdf5,
  0xfdb2,
  0x02e8,
  0xffb1,
  0xfe1c,
  0xff0f,
  0xfdea,
  0xfc2e,
  0xff6a,
  0x1094,
  0xfe34,
  0x0026,
  0xf734,
  0xfe11,
  0xfe5b,
  0x0000,
  0xff6a,
  0xffac,
  0x0189,
  0xfc87,
  0x079f
};


// layer1.conv1 weights [shape=(32, 32, 3, 3), qi=0, qf=16]
int16_t w_layer1_conv1[] = {
  0x0000,
  0x0002,
  0xffff,
  0x0000,
  0xfffe,
  0x0002,
  0x0000,
  0xfffe,
  0x0000,
  0x0001,
  0x0002,
  0x0000,
  0x0000,
  0x0002,
  0x0002,
  0x0000,
  0x0000,
  0xffff,
  0x0003,
  0x0000,
  0x0002,
  0x0001,
  0x0001,
  0x0000,
  0x0002,
  0x0002,
  0x0002,
  0x0002,
  0xffff,
  0x0000,
  0x0001,
  0xffff,
  0x0000,
  0xffff,
  0x0001,
  0x0002,
  0x0000,
  0xffff,
  0x0002,
  0x0000,
  0x0000,
  0x0000,
  0x0000,
  0x0001,
  0x0002,
  0x0000,
  0x0002,
  0x0002,
  0x0001,
  0x0002,
  0x0000,
  0xffff,
  0xffff,
  0x0001,
  0xffff,
  0xfffe,
  0x0000,
  0xffff,
  0xffff,
  0xffff,
  0xffff,
  0xffff,
  0x0001,
  0x0001,
  0x0000,
  0xfffe,
  0x0000,
  0x0000,
  0x0002,
  0x0000,
  0x0000,
  0x0001,
  0xffff,
  0x0002,
  0x0000,
  0x0000,
  0x0002,
  0x0000,
  0x0001,
  0x0000,
  0xffff,
  0xfffe,
  0x0000,
  0xffff,
  0xfffe,
  0x0000,
  0x0000,
  0x0000,
  0x0000,
  0x0000,
  0x0002,
  0xffff,
  0x0000,
  0x0002,
  0x0000,
  0xffff,
  0x0000,
  0xffff,
  0x0000,
  0x0001,
  0x0000,
  0xffff,
  0x0001,
  0x0000,
  0x0000,
  0x0000,
  0x0000,
  0xffff,
  0x0001,
  0x0000,
  0xffff,
  0xffff,
  0xffff,
  0x0000,
  0x0001,
  0x0000,
  0x0000,
  0xffff,
  0xfffe,
  0x0001,
  0x0000,
  0xfffe,
  0x0001,
  0x0000,
  0xfffe,
  0xffff,
  0x0000,
  0x0001,
  0x0000,
  0x0002,
  0x0002,
  0x0002,
  0xfffe,
  0xffff,
  0x0000,
  0x0001,
  0xffff,
  0x0001,
  0xffff,
  0x0000,
  0x0001,
  0x0000,
  0x0000,
  0x0002,
  0x0000,
  0x0000,
  0xffff,
  0xffff,
  0x0000,
  0x0000,
  0x0000,
  0xffff,
  0x0001,
  0x0000,
  0x0000,
  0xfffe,
  0x0002,
  0x0001,
  0x0000,
  0xffff,
  0xffff,
  0x0002,
  0x0002,
  0xfffe,
  0x0000,
  0x0002,
  0x0001,
  0x0000,
  0x0000,
  0x0002,
  0x0001,
  0x0001,
  0x0000,
  0x0000,
  0x0000,
  0x0001,
  0x0000,
  0x0002,
  0xffff,
  0xffff,
  0xfffe,
  0xffff,
  0x0000,
  0x0000,
  0x0000,
  0x0002,
  0x0000,
  0x0002,
  0x0002,
  0x0000,
  0x0000,
  0x0001,
  0x0000,
  0x0000,
  0x0000,
  0x0000,
  0x0002,
  0x0000,
  0x0000,
  0x0000,
  0xffff,
  0x0000,
  0xffff,
  0x0000,
  0x0001,
  0xffff,
  0x0001,
  0x0000,
  0x0002,
  0xffff,
  0x0002,
  0xffff,
  0xffff,
  0xffff,
  0xffff,
  0x0000,
  0x0000,
  0x0000,
  0x0001,
  0x0002,
  0xffff,
  0x0000,
  0x0000,
  0x0000,
  0x0000,
  0x0002,
  0x0002,
  0xffff,
  0xffff,
  0xffff,
  0x0002,
  0x0000,
  0x0002,
  0x0000,
  0x0000,
  0x0001,
  0x0002,
  0x0000,
  0xfffe,
  0xffff,
  0x0001,
  0x0000,
  0x0002,
  0x0001,
  0x0000,
  0xfffe,
  0x0000,
  0x0000,
  0xfffe,
  0x0000,
  0xfffe,
  0xffff,
  0xfffe,
  0x0000,
  0x0002,
  0x0002,
  0x0000,
  0xffff,
  0xffff,
  0x0000,
  0x0002,
  0x0002,
  0xffff,
  0x0000,
  0x0003,
  0x0000,
  0x0001,
  0x0000,
  0x0000,
  0x0000,
  0x0002,
  0x0000,
  0x0001,
  0xffff,
  0x0000,
  0xffff,
  0xffff,
  0x0000,
  0x0002,
  0x0000,
  0x0001,
  0x0000,
  0x0000,
  0xffff,
  0x0002,
  0x0002,
  0x0000,
  0x0000,
  0x1ccb,
  0xf721,
  0xf313,
  0x2886,
  0x022b,
  0xee29,
  0xee1c,
  0xf720,
  0x008a,
  0xde44,
  0x0d61,
  0x18e6,
  0xbacc,
  0x2c34,
  0x1953,
  0xda95,
  0x1215,
  0x089e,
  0xf2ba,
  0x1849,
  0x03a9,
  0xf1c7,
  0x07d5,
  0xfbb1,
  0x02ff,
  0x1527,
  0xfa7f,
  0x0dc9,
  0xf5f0,
  0x1474,
  0xd0f7,
  0xf3b1,
  0xf90f,
  0xf95c,
  0xecb9,
  0xfbe0,
  0xd9f0,
  0x06ec,
  0x189e,
  0xc85e,
  0x1857,
  0x2ec9,
  0xe279,
  0x0146,
  0x1e96,
  0x0659,
  0x010a,
  0xf7af,
  0xf588,
  0xe5ac,
  0xfa82,
  0x0f2b,
  0x01ba,
  0xf39c,
  0x1e23,
  0xde5f,
  0xdb30,
  0x13d8,
  0xd1e6,
  0xf691,
  0x0861,
  0xeb79,
  0x08c7,
  0xe6d6,
  0x1672,
  0x0cc4,
  0xe5f3,
  0x1932,
  0x001f,
  0xfb66,
  0x1fa6,
  0xff3e,
  0xf032,
  0xee31,
  0x06b5,
  0xc94e,
  0x0d1b,
  0x177a,
  0xc771,
  0x1495,
  0x1a68,
  0x2427,
  0xf2df,
  0xec0d,
  0xec87,
  0xdd4b,
  0xefa6,
  0x05b0,
  0xf5d4,
  0x1c91,
  0x0a65,
  0xef74,
  0xecbe,
  0x0cac,
  0x06cf,
  0x0417,
  0x03f8,
  0xf758,
  0xf017,
  0x19aa,
  0xf88a,
  0xe7de,
  0x09cb,
  0xfca7,
  0xf065,
  0x1bcd,
  0xf396,
  0xef5d,
  0xfb08,
  0xec90,
  0x0821,
  0xe5cb,
  0xe580,
  0x03d3,
  0xf210,
  0xe47c,
  0xfb4f,
  0xddb4,
  0xfa03,
  0x2f4d,
  0xd660,
  0xe92f,
  0x3caf,
  0xd70f,
  0xee76,
  0x1570,
  0x07bf,
  0x07e7,
  0x0e6b,
  0x05c8,
  0xf772,
  0xf4e5,
  0x08ea,
  0x08ce,
  0xf49d,
  0xeeb6,
  0xf18b,
  0xe64b,
  0x0520,
  0x015b,
  0xf925,
  0x087e,
  0xed07,
  0xff52,
  0x0980,
  0x0ceb,
  0x0729,
  0xf757,
  0x0737,
  0xfea5,
  0xf05b,
  0xff10,
  0x21c0,
  0xf94d,
  0xfb28,
  0x07b0,
  0xe531,
  0xec29,
  0xf9b3,
  0xf2e2,
  0xf8b0,
  0xf708,
  0x1975,
  0xf556,
  0xf8d8,
  0x15bb,
  0xf4b2,
  0x0b8b,
  0x171b,
  0x0c6b,
  0xfd27,
  0xe0b6,
  0x018e,
  0x12b5,
  0xe1fb,
  0x0ab9,
  0x0982,
  0xfa3f,
  0xf0be,
  0x01ba,
  0xec46,
  0xf280,
  0x20e1,
  0xf3eb,
  0xf92a,
  0x3972,
  0xf8b2,
  0xf90b,
  0x0f0d,
  0xfaf8,
  0xeb86,
  0xe913,
  0xf7df,
  0xfa18,
  0xfcb1,
  0x0653,
  0xff27,
  0x0dcc,
  0xe3cd,
  0x3315,
  0x0a7f,
  0xe1c4,
  0x220b,
  0x20a8,
  0xea66,
  0x0b45,
  0x27ff,
  0xfa61,
  0xf6d7,
  0xe31d,
  0x0345,
  0xeea5,
  0xe9d7,
  0x076a,
  0x0a6b,
  0x0770,
  0x145c,
  0x12aa,
  0xea56,
  0x0fe4,
  0x11ab,
  0xe205,
  0x1814,
  0x0e08,
  0xef01,
  0xef46,
  0xdd5f,
  0xe91e,
  0x039e,
  0xd9e0,
  0xdf57,
  0x1f71,
  0xde40,
  0xf03c,
  0xf77b,
  0x0dac,
  0xfcc5,
  0xcb5c,
  0x18fa,
  0x2695,
  0xf53c,
  0xfb84,
  0xfa12,
  0xfcf5,
  0x1346,
  0xfeb1,
  0xd013,
  0x018c,
  0x0761,
  0xfe4a,
  0xffc3,
  0x0514,
  0xe592,
  0x1487,
  0x1c03,
  0xe284,
  0x16fe,
  0x0fb0,
  0xe7d4,
  0x010f,
  0xfa5f,
  0xd6e9,
  0x25e4,
  0x1f84,
  0xc53a,
  0x1fc3,
  0x1972,
  0xe114,
  0x18c8,
  0x1371,
  0x075a,
  0x0f73,
  0xff0c,
  0x0128,
  0x1304,
  0x0938,
  0x0415,
  0x1d8c,
  0x170f,
  0xf58b,
  0xf839,
  0x1b33,
  0xe6e0,
  0xdd8b,
  0x1f36,
  0xf1fb,
  0xf7df,
  0x147e,
  0x090c,
  0xf96e,
  0xff53,
  0x04bf,
  0x0728,
  0xffc6,
  0xdf8a,
  0xe781,
  0xfadc,
  0x23b3,
  0x12db,
  0x05e1,
  0x0f6d,
  0x0f44,
  0x09d0,
  0xfb60,
  0x0470,
  0x0a12,
  0xff30,
  0xf7ef,
  0xfe18,
  0xfee5,
  0x0332,
  0x0369,
  0x02ae,
  0xf7e6,
  0xfb33,
  0xf78a,
  0x0214,
  0x07f7,
  0x1044,
  0x1b36,
  0x0abb,
  0xff8c,
  0xf846,
  0xee9f,
  0x0180,
  0x0667,
  0x02a8,
  0x16c9,
  0x0d3f,
  0x0ce0,
  0xed53,
  0xee4c,
  0xedf6,
  0xf06c,
  0xf5ad,
  0x07f8,
  0xfe19,
  0x054b,
  0x0aa7,
  0x026b,
  0xf599,
  0xe83e,
  0xf750,
  0xfa3a,
  0x024c,
  0xfd56,
  0xe5c0,
  0xf4f9,
  0x0082,
  0xf062,
  0xfd95,
  0x11ee,
  0x0794,
  0xfea0,
  0x0aff,
  0x1450,
  0x0eef,
  0xf075,
  0x0564,
  0xfd17,
  0x0456,
  0x03b2,
  0x093e,
  0xf78d,
  0x0066,
  0xf6a9,
  0xcd9d,
  0xd19a,
  0xd740,
  0xf6b3,
  0xfb27,
  0x12b2,
  0x0952,
  0xfc3f,
  0x0872,
  0x00b3,
  0xebea,
  0xdc70,
  0x040e,
  0xfa7c,
  0xef86,
  0xf317,
  0xfaee,
  0xff65,
  0xf32b,
  0xe698,
  0xeddc,
  0x0796,
  0x05ce,
  0x0b9a,
  0xf527,
  0xf005,
  0x050e,
  0xed73,
  0xfb0c,
  0xf320,
  0xfcea,
  0x0e28,
  0x129e,
  0x12cd,
  0x0896,
  0x0808,
  0xe9cf,
  0xd2b6,
  0xe05b,
  0x16e0,
  0x2146,
  0x205a,
  0xea21,
  0xd9d7,
  0xeec3,
  0xd7db,
  0xc1f2,
  0xda34,
  0xf524,
  0xe8c4,
  0xf266,
  0x0d3e,
  0x2390,
  0x29b6,
  0xe567,
  0xf1e5,
  0xef8e,
  0x0664,
  0xf74f,
  0x05a2,
  0x0b8d,
  0xe8c3,
  0xe9e5,
  0x1019,
  0x0691,
  0x00ef,
  0xfa43,
  0xfa0a,
  0xf0cb,
  0xef49,
  0xf787,
  0xf296,
  0xf2d5,
  0x073c,
  0x03b0,
  0xf01d,
  0xfd5e,
  0xfb39,
  0x0ad1,
  0x133f,
  0x0b5b,
  0xf5b1,
  0xda3e,
  0xf4bd,
  0x0378,
  0xed99,
  0xe29c,
  0x1040,
  0x0474,
  0x079d,
  0x0ae0,
  0x1cbc,
  0x139d,
  0xf242,
  0x03e5,
  0xf474,
  0xf1fb,
  0x1531,
  0x0024,
  0xfd05,
  0xf4bb,
  0xf835,
  0x0101,
  0x0b28,
  0x1daa,
  0xfc2d,
  0xf490,
  0x0d37,
  0xfac7,
  0xec91,
  0xff1c,
  0xf170,
  0xf5c3,
  0xfe19,
  0x008d,
  0x03cc,
  0xee26,
  0xf30f,
  0xeea0,
  0xeada,
  0x0621,
  0x07b2,
  0xf58e,
  0xf63e,
  0x0a5a,
  0xf569,
  0xe9b3,
  0xee7f,
  0xe0dc,
  0xfcd0,
  0xf2bb,
  0x0072,
  0x037a,
  0xfd4f,
  0xf1c7,
  0x12a5,
  0x0fcd,
  0x07a4,
  0xee79,
  0xf385,
  0xf9a7,
  0x0396,
  0x0735,
  0xff1c,
  0x07af,
  0xff4a,
  0xf18f,
  0xf3ea,
  0xf5be,
  0x0041,
  0x0c8d,
  0x198b,
  0x1c60,
  0xf52b,
  0xfba9,
  0xf063,
  0xff5d,
  0x083e,
  0xfc29,
  0x01a3,
  0x0662,
  0xf58a,
  0x04f2,
  0xf094,
  0xf623,
  0xff8b,
  0x0073,
  0xff3b,
  0xfdfc,
  0x0c7e,
  0x01ca,
  0xfe34,
  0xf765,
  0xf40c,
  0x0042,
  0x0f62,
  0x09f1,
  0xfd6d,
  0x12fe,
  0x1498,
  0xfb76,
  0xe2c9,
  0xfbf3,
  0x1ae4,
  0x0e7d,
  0x0018,
  0x0e0c,
  0x08f4,
  0x0af7,
  0x065c,
  0x045e,
  0x0048,
  0xfc34,
  0xf423,
  0xf19d,
  0x0def,
  0x1caf,
  0x09eb,
  0xefa3,
  0x051b,
  0xedf4,
  0xf154,
  0xfd15,
  0x098d,
  0xec90,
  0x08ca,
  0xfe4b,
  0xef16,
  0xece8,
  0xf33f,
  0xf2e5,
  0xce19,
  0xf515,
  0x14c4,
  0x2793,
  0x0810,
  0x0a11,
  0x07f9,
  0x1073,
  0x0d87,
  0x0fc0,
  0x0497,
  0x136e,
  0x1533,
  0x0759,
  0x0689,
  0x1dae,
  0x0df2,
  0x0ae5,
  0xf325,
  0xf96f,
  0xf775,
  0xf614,
  0xedb1,
  0xf061,
  0xdb8f,
  0xe260,
  0x13b6,
  0x0ee6,
  0xfb78,
  0x008d,
  0x091f,
  0xefa1,
  0x0ce0,
  0xedac,
  0xffc6,
  0xefd5,
  0x18ae,
  0xfc96,
  0xebe2,
  0x0b66,
  0xefa9,
  0x0714,
  0x0b4d,
  0x07fe,
  0x03c0,
  0x02bc,
  0xfd96,
  0x1a6d,
  0x1a89,
  0x00d9,
  0xe96b,
  0xf3db,
  0xf4c6,
  0x0079,
  0x0fc6,
  0x0ff0,
  0xff00,
  0xe931,
  0xdb23,
  0xecca,
  0xefd8,
  0xfd2f,
  0x0f94,
  0x018e,
  0xfa04,
  0xfcb6,
  0x03f7,
  0xf4be,
  0xf692,
  0xfd69,
  0xf107,
  0x1237,
  0x136f,
  0x1732,
  0xfa13,
  0xfba6,
  0x0814,
  0x034b,
  0x121d,
  0x0a6d,
  0xf5e2,
  0xf77c,
  0x0d14,
  0xe165,
  0xe903,
  0xe8e1,
  0xf558,
  0xf57f,
  0xf945,
  0xfad3,
  0x1336,
  0xfe14,
  0x02a5,
  0x279c,
  0x2709,
  0x0355,
  0x1716,
  0x1bc6,
  0x08b8,
  0x083c,
  0x0ebc,
  0x05db,
  0x0932,
  0x1eac,
  0xf9ba,
  0x1611,
  0x1c39,
  0x11a4,
  0x199f,
  0x151c,
  0x1242,
  0x13c8,
  0x1438,
  0x08d4,
  0x1f11,
  0x1c75,
  0x082b,
  0x047b,
  0xf8eb,
  0xc15a,
  0xdba7,
  0xcd45,
  0x05cd,
  0x07d3,
  0xf917,
  0xdc33,
  0xc58a,
  0xcd4e,
  0xcbd0,
  0xc990,
  0xc0a2,
  0x01e2,
  0xfed3,
  0xfd63,
  0xfc78,
  0xf353,
  0xdff1,
  0xfc56,
  0x0873,
  0xec1f,
  0xf62f,
  0x01bc,
  0xf516,
  0x09b2,
  0x0cf0,
  0xf221,
  0xe855,
  0xe648,
  0xde7d,
  0xfa7c,
  0xe28e,
  0xe4d6,
  0x10ee,
  0x0ee0,
  0x061b,
  0x0b9d,
  0xfacb,
  0xdca0,
  0x0a0e,
  0x0028,
  0x02a4,
  0x0638,
  0x1260,
  0x0dc5,
  0xf919,
  0x22a2,
  0x125e,
  0xf3ed,
  0xfb31,
  0x0984,
  0x07d6,
  0x02bc,
  0xf75d,
  0xf945,
  0x035f,
  0xd01c,
  0x021a,
  0xfc86,
  0xf3d0,
  0x197b,
  0x15d0,
  0x1bea,
  0xe225,
  0xe7bd,
  0xf11a,
  0x0063,
  0x0887,
  0x13b9,
  0x0d3e,
  0x121c,
  0x0dd8,
  0x084c,
  0x02bc,
  0x0a40,
  0x0948,
  0x1224,
  0xfd26,
  0xf969,
  0xf757,
  0xfa3d,
  0xf8df,
  0xf938,
  0xe6f3,
  0xfd92,
  0x073e,
  0x0255,
  0x0851,
  0x0bdf,
  0xfde7,
  0xff2c,
  0x1ae0,
  0x022d,
  0xf97e,
  0xee6b,
  0xf4e3,
  0xfbcd,
  0xff14,
  0xe21d,
  0x11a3,
  0x14e2,
  0xf184,
  0xfc40,
  0xe79b,
  0xeaac,
  0x018f,
  0x0038,
  0xe6f6,
  0xeba6,
  0x0e05,
  0x0c7d,
  0xe679,
  0xdb92,
  0x0520,
  0x1d8e,
  0xed4a,
  0xef2a,
  0x0262,
  0xfabe,
  0xd0bd,
  0x0bd1,
  0x0d1d,
  0xf9ce,
  0x0445,
  0xfd26,
  0xfdbd,
  0xe845,
  0xe323,
  0xcab3,
  0xfdf4,
  0xf35d,
  0xe107,
  0x1a70,
  0x1f02,
  0xfc79,
  0x1e36,
  0x0eb8,
  0xf66b,
  0xf28f,
  0xfb75,
  0x04a4,
  0xff7a,
  0x0b52,
  0x01c8,
  0xf001,
  0x1093,
  0x0c01,
  0xeddf,
  0xf5ce,
  0xfa1c,
  0xfd29,
  0xf9f9,
  0x0787,
  0xf510,
  0xef2a,
  0xe826,
  0xef9d,
  0xe358,
  0xe484,
  0x1aae,
  0x1b8c,
  0x0378,
  0xf206,
  0xe61d,
  0xd0a0,
  0xf491,
  0xe5bf,
  0xf195,
  0xeef4,
  0xd206,
  0xeb40,
  0x05d8,
  0xfe47,
  0x069d,
  0x1140,
  0xf63d,
  0x0c63,
  0x1132,
  0x175b,
  0x0e30,
  0x436f,
  0x1945,
  0x0d8e,
  0x0caa,
  0xf0bc,
  0x0a88,
  0x20ba,
  0x0a58,
  0xfb5d,
  0x2d93,
  0x0c2f,
  0xfd6c,
  0xff0f,
  0x02ac,
  0xf78c,
  0x062d,
  0x011d,
  0xec6d,
  0x2575,
  0x0599,
  0xf5b7,
  0x086f,
  0x056d,
  0xe141,
  0x0e5b,
  0x0828,
  0xf85f,
  0x29c6,
  0x0a32,
  0x016d,
  0xfe93,
  0xf4d7,
  0xf050,
  0x0666,
  0xf025,
  0xe5ab,
  0xf332,
  0xff11,
  0x028e,
  0xff98,
  0xef83,
  0xe82a,
  0x0867,
  0xe5d2,
  0xf6c6,
  0xe48d,
  0xf5b3,
  0x0053,
  0xfd2e,
  0xf6ed,
  0xf56e,
  0x03ab,
  0x0f92,
  0xf367,
  0x3484,
  0xfecb,
  0xee00,
  0x16ac,
  0xf60c,
  0xf1ea,
  0x033b,
  0x0bbe,
  0xec33,
  0x30fa,
  0x207e,
  0x0a95,
  0x1606,
  0xfecf,
  0xf31a,
  0xebb6,
  0xd97e,
  0xf649,
  0xf4e3,
  0xefec,
  0x0014,
  0xedfe,
  0xed79,
  0xed58,
  0x092d,
  0xf925,
  0xecd9,
  0x1841,
  0xf328,
  0xfe7e,
  0x05da,
  0xfb09,
  0xf8b7,
  0xf7cd,
  0xcfd8,
  0xd49a,
  0x0e97,
  0xeb33,
  0x007f,
  0xe107,
  0xe29c,
  0xfde6,
  0x0a16,
  0xfd8e,
  0xf200,
  0x15ad,
  0x0f22,
  0x0d34,
  0x072c,
  0xf7fd,
  0xf284,
  0x0db8,
  0x0f9b,
  0xf60f,
  0x1a57,
  0xfe02,
  0xf840,
  0x0fc3,
  0xfedd,
  0xf1d1,
  0x03f9,
  0x0354,
  0xfdf1,
  0xfebc,
  0xe9b4,
  0xf6e8,
  0x160e,
  0xfe4f,
  0xffe2,
  0x0bed,
  0x0884,
  0xee61,
  0x17c5,
  0x07b9,
  0xeca7,
  0x0204,
  0x0ca0,
  0x1927,
  0xf7f8,
  0xea9a,
  0xfc88,
  0xfa03,
  0xfa4b,
  0xfcae,
  0xfc34,
  0xfd10,
  0x04a4,
  0x16d8,
  0x0b55,
  0xfacb,
  0x19c6,
  0x18f8,
  0x0122,
  0x0ce4,
  0xf962,
  0xeb4a,
  0x119f,
  0x013b,
  0xeb6c,
  0xfe25,
  0xf3a8,
  0xf71f,
  0xef84,
  0xed9c,
  0xfae5,
  0x0c48,
  0xfba3,
  0x09aa,
  0x0f3c,
  0x0d6b,
  0x017f,
  0xeb9e,
  0xfdd3,
  0x08af,
  0xf705,
  0xffdc,
  0xf80a,
  0xf8a9,
  0xff7d,
  0x0721,
  0xfb20,
  0xfce9,
  0xfc48,
  0x00cc,
  0xefe0,
  0xe1fe,
  0x15ba,
  0xfcec,
  0xfd68,
  0x09e7,
  0xf128,
  0xf4e4,
  0xff62,
  0x048c,
  0x10cc,
  0x0535,
  0xfc3f,
  0xf78d,
  0xf86f,
  0x050c,
  0x01b9,
  0xf824,
  0xe8db,
  0xe5e0,
  0x0765,
  0xf9c6,
  0xeaba,
  0x0ba2,
  0xf5ed,
  0xf488,
  0x0b84,
  0xed3c,
  0x07b1,
  0xf931,
  0xfcb2,
  0x0c5b,
  0xf7e8,
  0x070d,
  0x08f6,
  0xef7d,
  0x0a7c,
  0xf637,
  0xeb2f,
  0xf0d5,
  0xea4a,
  0xfbfb,
  0x0d4d,
  0x0cfb,
  0x130c,
  0x162f,
  0xf4da,
  0x3380,
  0x073d,
  0xf8a0,
  0x13c8,
  0xf0d6,
  0xe5db,
  0xfc4a,
  0xf76e,
  0xffb8,
  0x19e4,
  0xfb37,
  0xf93f,
  0x0a8e,
  0xfca8,
  0xf9da,
  0x2bd1,
  0x13f8,
  0x01bb,
  0x4c29,
  0x0f92,
  0xfe6c,
  0x186f,
  0xef47,
  0xf951,
  0x04b7,
  0xfdf9,
  0xed14,
  0x2f10,
  0xf738,
  0xf6c2,
  0x0e91,
  0x06cc,
  0x0029,
  0xebe6,
  0xf476,
  0xfc95,
  0x0eac,
  0x0a5a,
  0xf027,
  0x15bf,
  0xfb93,
  0xf6a5,
  0xfac9,
  0x0b42,
  0x0b24,
  0xfcec,
  0x0503,
  0x050d,
  0x01a8,
  0x01bc,
  0xf3e0,
  0x0512,
  0x161b,
  0x2078,
  0xf846,
  0xee1a,
  0x02da,
  0xf40b,
  0xe5dd,
  0xdf73,
  0xff93,
  0x02a4,
  0x02e6,
  0xfa51,
  0x028d,
  0xf05a,
  0x056a,
  0xf817,
  0xfdbe,
  0xfe0c,
  0x15f2,
  0x28cc,
  0x1417,
  0x109b,
  0x1eee,
  0xf33a,
  0x0b9e,
  0x12c1,
  0xfc07,
  0x17a6,
  0x1985,
  0x02e3,
  0x0ae6,
  0x1559,
  0x06e9,
  0xf961,
  0xf4bd,
  0x056b,
  0xff97,
  0x0630,
  0x0ca4,
  0xfe1c,
  0xdf3f,
  0x0280,
  0xed3f,
  0xe324,
  0xf7b3,
  0x0918,
  0x17c9,
  0xf24c,
  0x06eb,
  0x2017,
  0xe959,
  0xd38d,
  0xd6e3,
  0xe9e0,
  0xe65a,
  0x08e8,
  0xe0cc,
  0xe71e,
  0xef62,
  0xfaa8,
  0xf7fc,
  0xf4b9,
  0x0d96,
  0x22c8,
  0x1441,
  0x2214,
  0x31df,
  0x2315,
  0x031f,
  0x02f1,
  0x0c00,
  0xf1f5,
  0xec4a,
  0xfbea,
  0xeb4c,
  0xe91c,
  0xeead,
  0xfba5,
  0xeff8,
  0xfd75,
  0x0dbd,
  0x0629,
  0x12eb,
  0xf172,
  0xeec3,
  0xfa7a,
  0x077d,
  0xfd24,
  0xeb53,
  0xdbbb,
  0xe841,
  0xf279,
  0xd1d0,
  0xd0a4,
  0xe220,
  0x0783,
  0xe67b,
  0xefe0,
  0xd203,
  0xce49,
  0xd8ce,
  0xd4c6,
  0xcadd,
  0xe00a,
  0xf7d1,
  0xddff,
  0xdb5e,
  0xff3e,
  0x0607,
  0x0451,
  0xe6b4,
  0xf64e,
  0x039b,
  0xf3ef,
  0xe8c2,
  0xe9b5,
  0x2815,
  0x3cb6,
  0x3c3c,
  0x0d9b,
  0x0edc,
  0x2be8,
  0xeafa,
  0xc9a8,
  0xcbae,
  0x19eb,
  0x353b,
  0x224d,
  0x1339,
  0x2e1e,
  0x3bdf,
  0x18d7,
  0x03ce,
  0xfa98,
  0xf0a0,
  0xfae2,
  0x1193,
  0xfa22,
  0x047a,
  0x0682,
  0x048a,
  0xe1d8,
  0xe3e7,
  0xeef6,
  0xeea3,
  0x0fe5,
  0x0157,
  0x0169,
  0xfe53,
  0x0ed9,
  0x0d32,
  0xf4bc,
  0xf982,
  0x2879,
  0x289b,
  0x111d,
  0x0acb,
  0x1577,
  0xf514,
  0xf024,
  0xfde3,
  0xf51b,
  0xf254,
  0xfd2c,
  0xe694,
  0xfa35,
  0x0ca4,
  0x0f90,
  0xf139,
  0xf2dc,
  0x05d8,
  0x23b9,
  0x2754,
  0xf8c8,
  0x297c,
  0x2d05,
  0x02ab,
  0xea6a,
  0xfa40,
  0xff07,
  0xfb5c,
  0xfc57,
  0x14d8,
  0xfc4f,
  0x0633,
  0x08c1,
  0xec40,
  0xf114,
  0xeca3,
  0xe47c,
  0xfae0,
  0xd27e,
  0xddf3,
  0xe377,
  0x0334,
  0xeb25,
  0xe2f3,
  0xf50a,
  0xfac2,
  0x147e,
  0x0511,
  0xfd14,
  0x070d,
  0x1749,
  0xec2f,
  0xd4ee,
  0xeea4,
  0xf968,
  0x1cdb,
  0xf723,
  0xe9c3,
  0xf4be,
  0x05c4,
  0xe326,
  0xe981,
  0xd161,
  0xee18,
  0x04cc,
  0xf6d6,
  0xdb7b,
  0xd6d2,
  0x0421,
  0xdab7,
  0xf567,
  0x18da,
  0x0fd5,
  0x06f6,
  0x0b08,
  0x18ec,
  0x0be8,
  0xf250,
  0xe000,
  0xf15d,
  0xf028,
  0x0a23,
  0x286f,
  0x061d,
  0xfde0,
  0x113a,
  0x03a3,
  0xf957,
  0xe9ef,
  0x136e,
  0x3190,
  0x281e,
  0x259a,
  0x26f6,
  0x1e78,
  0xfcd0,
  0x080d,
  0xf340,
  0xf168,
  0x0ea1,
  0x159a,
  0x0ee3,
  0x08c1,
  0xe800,
  0xf26e,
  0xe92f,
  0xf39e,
  0x04bb,
  0xefea,
  0xf4f1,
  0xfea6,
  0xe0e4,
  0xe31f,
  0x1b4b,
  0xfae8,
  0xf0fd,
  0x0dde,
  0xf641,
  0x0afd,
  0xff86,
  0xf5b1,
  0xe4f1,
  0xf818,
  0x0e94,
  0xf376,
  0x118e,
  0x1e63,
  0x2622,
  0x12fc,
  0x06f2,
  0x040d,
  0xf792,
  0xe74d,
  0xf78a,
  0xfe0a,
  0xcfea,
  0xe5ac,
  0xf900,
  0xf207,
  0xea2a,
  0x2477,
  0x053b,
  0x054b,
  0xfc45,
  0x046c,
  0xfd0c,
  0x0ae0,
  0x065c,
  0xff41,
  0x169a,
  0x10c4,
  0x0432,
  0xee67,
  0xf95a,
  0x081f,
  0x0167,
  0x012d,
  0x10be,
  0x0766,
  0x084d,
  0x1295,
  0xfc7e,
  0xf2ba,
  0x0460,
  0xffa8,
  0xfe31,
  0x0f7f,
  0xf7a6,
  0x069f,
  0x0aa1,
  0x019f,
  0xe675,
  0xe68a,
  0x0c1d,
  0x00b4,
  0xec23,
  0x12a0,
  0x125c,
  0x0116,
  0xe09a,
  0xe4a8,
  0xf69a,
  0x06fe,
  0x0285,
  0xfb6c,
  0x0406,
  0xf48f,
  0x0c63,
  0x0455,
  0xf9cb,
  0xed6c,
  0x13b3,
  0x06e8,
  0x040e,
  0x0211,
  0xf422,
  0x0901,
  0x023b,
  0xead1,
  0xf9e4,
  0xf4f2,
  0xfdd4,
  0x06f5,
  0xec4b,
  0x039d,
  0x0efe,
  0xedb7,
  0xef8f,
  0x095e,
  0xf4bf,
  0xf8ca,
  0xfc56,
  0x0b73,
  0x0224,
  0xf35e,
  0xe3f4,
  0xe5cd,
  0x0c48,
  0xeb88,
  0xf0e7,
  0x032a,
  0xe5c6,
  0xf332,
  0xfe8e,
  0xf404,
  0xe783,
  0xf9e3,
  0x04a9,
  0xeb11,
  0xe4b8,
  0x0f52,
  0xfa86,
  0xf44d,
  0xf559,
  0xf0f9,
  0xff18,
  0xff94,
  0xee58,
  0xf550,
  0x019b,
  0x0018,
  0xf0de,
  0xf11f,
  0x04b0,
  0x1141,
  0xfead,
  0xf6f5,
  0xfa66,
  0xec4b,
  0xe2cf,
  0xf0d4,
  0x1e85,
  0x29a2,
  0x2d8c,
  0xe96b,
  0xebf0,
  0xfdf8,
  0xc24a,
  0xe2c8,
  0xf13f,
  0xf07b,
  0xce63,
  0xf0b7,
  0x0435,
  0x088f,
  0xedce,
  0xfb37,
  0x01ff,
  0x1659,
  0xec8c,
  0xed70,
  0x0be3,
  0xf43c,
  0xecd3,
  0xf1a1,
  0xf487,
  0x0b93,
  0xf80b,
  0x0b35,
  0x12be,
  0x0412,
  0x1dfc,
  0x15a6,
  0xfc26,
  0xff55,
  0x0aed,
  0x131f,
  0xfc35,
  0xf747,
  0xf844,
  0xfe10,
  0x06c9,
  0x059b,
  0xfa93,
  0x0cbb,
  0x08b1,
  0xf431,
  0xd879,
  0xfe0e,
  0xfed7,
  0x0d41,
  0xf2e5,
  0xeece,
  0x060b,
  0x0b92,
  0x016d,
  0x03e9,
  0xfe1a,
  0xff29,
  0x01e8,
  0x0a61,
  0xf2c2,
  0x1251,
  0x1832,
  0x268e,
  0x333e,
  0x2dac,
  0xff5b,
  0xef39,
  0xfa9b,
  0xe4c7,
  0xdfe3,
  0xe015,
  0xf321,
  0xfb24,
  0x03a4,
  0x029a,
  0x021e,
  0x00bd,
  0xf75d,
  0x0373,
  0xf8af,
  0x0fa6,
  0x1570,
  0x14e6,
  0x07ca,
  0xf06d,
  0xf4e4,
  0xf906,
  0xf75b,
  0x01ec,
  0xf37a,
  0xe43d,
  0xe836,
  0x0d76,
  0x054c,
  0xf036,
  0x1429,
  0x1b83,
  0x14b2,
  0xf1ab,
  0xefc9,
  0xf54b,
  0x0063,
  0x01ba,
  0xebbe,
  0x0602,
  0x0128,
  0x04e5,
  0xe433,
  0xd3dd,
  0x0cf8,
  0x15f2,
  0xf6fa,
  0xe2d6,
  0xf767,
  0xf98c,
  0x1329,
  0x0052,
  0xf68e,
  0x06aa,
  0x0363,
  0xfa50,
  0xfeb1,
  0x025f,
  0x10cf,
  0x018a,
  0x0d75,
  0x0cdb,
  0xfdde,
  0x0841,
  0x0e98,
  0xff34,
  0x0394,
  0x1039,
  0x0ecb,
  0x0879,
  0xef18,
  0xf70e,
  0x07c6,
  0x064d,
  0xfbf4,
  0x0f32,
  0x1a51,
  0xeded,
  0x0668,
  0xf36a,
  0xebdb,
  0x2a1b,
  0xffd2,
  0xf266,
  0x1b83,
  0x15b2,
  0x1950,
  0x0501,
  0x0012,
  0x0d11,
  0x1152,
  0x1f3a,
  0x0828,
  0xf18f,
  0x03a6,
  0xfbe3,
  0x18cf,
  0x1bd1,
  0x0c05,
  0x0736,
  0xf162,
  0x039a,
  0xf5f5,
  0x051f,
  0x041d,
  0xf40b,
  0x05ca,
  0xf568,
  0xea54,
  0xfc1b,
  0xff9e,
  0xe430,
  0xe43d,
  0xf5d7,
  0xfe76,
  0x0247,
  0x05d3,
  0x09bb,
  0x0e2b,
  0x135b,
  0xf9a4,
  0x023e,
  0x0fa6,
  0x0c5a,
  0x056a,
  0x053f,
  0xf7a3,
  0x1127,
  0x1bbe,
  0xf6e0,
  0xffbc,
  0x07e9,
  0x0ce1,
  0xfd82,
  0xf9dc,
  0xfb6f,
  0x0e1e,
  0x0c0e,
  0xe6d7,
  0xf39c,
  0x08d9,
  0xfb2d,
  0x0d5b,
  0x1643,
  0xfe6c,
  0x0b26,
  0x18fc,
  0xe301,
  0xd5f0,
  0xedeb,
  0xfcff,
  0xeb49,
  0xdee7,
  0xf6b9,
  0x07ec,
  0xfd9d,
  0xefcf,
  0xef17,
  0x015c,
  0xe743,
  0xfd0e,
  0xfbb2,
  0xed15,
  0xebd7,
  0x034e,
  0xfbaa,
  0xfb90,
  0xf608,
  0x0836,
  0xfb63,
  0x0355,
  0x10aa,
  0x1146,
  0x0eae,
  0xf321,
  0x0473,
  0xfd1e,
  0x05e8,
  0x0ece,
  0x0531,
  0xed1c,
  0x038d,
  0x0f17,
  0xe706,
  0xdf15,
  0xfba6,
  0xe2c3,
  0x0e5b,
  0x05f0,
  0xfb41,
  0x1722,
  0x17eb,
  0xf2de,
  0xdc08,
  0x0363,
  0xf2a7,
  0x0a49,
  0xf661,
  0x0fa1,
  0x11c4,
  0x0681,
  0xf674,
  0xfcda,
  0xf90d,
  0xfb1d,
  0xec11,
  0xf1ef,
  0xe04f,
  0xef62,
  0x0a5f,
  0xfa79,
  0xe814,
  0xfa9e,
  0x01ee,
  0xfd51,
  0xef12,
  0x09c1,
  0x0e97,
  0x161a,
  0xed4a,
  0xe393,
  0x1912,
  0x0664,
  0x020c,
  0x092a,
  0x11be,
  0x1bd2,
  0x1e79,
  0xfca7,
  0xfbe7,
  0xffe4,
  0xfc5e,
  0x0e5e,
  0x0e86,
  0x1a6c,
  0x1cea,
  0x1eb1,
  0xef32,
  0xf282,
  0x05c6,
  0xf691,
  0xfc58,
  0xfbf4,
  0x04bc,
  0x1152,
  0x1bee,
  0xfa70,
  0x03d9,
  0x0058,
  0xefbb,
  0xe7b7,
  0xe749,
  0xec4f,
  0xf9a4,
  0x07f2,
  0x014f,
  0xfc13,
  0xfa7e,
  0x077d,
  0x0fff,
  0xf2f8,
  0xf8f8,
  0x0884,
  0x02a3,
  0xeb60,
  0xf933,
  0xffee,
  0xeb0a,
  0xfecb,
  0x032a,
  0xfb5b,
  0x007d,
  0x01a1,
  0x10e3,
  0x1a70,
  0x0d61,
  0x0141,
  0xfe48,
  0xf05f,
  0xf181,
  0x0194,
  0x0c38,
  0xf9c5,
  0xeb40,
  0x00ee,
  0xfca1,
  0xefda,
  0xe945,
  0x18cb,
  0x10de,
  0x050a,
  0x020c,
  0xf53b,
  0x0a21,
  0xf12e,
  0xfe12,
  0xe186,
  0xfdcc,
  0x0219,
  0x0e76,
  0xf87a,
  0xe8b3,
  0xf57b,
  0xf636,
  0x100d,
  0x0f4c,
  0xfa8d,
  0x1026,
  0x0af0,
  0xf2ef,
  0xe1bf,
  0xf777,
  0xf74a,
  0xf9c5,
  0xfe02,
  0xe8fc,
  0xf3f5,
  0x0a67,
  0xfe75,
  0xf51c,
  0x083f,
  0x0875,
  0xecd3,
  0xf7fd,
  0xd658,
  0xef22,
  0x02b8,
  0x0e44,
  0x022d,
  0xfb48,
  0x0f6e,
  0x05e7,
  0xef49,
  0x0fcf,
  0x093f,
  0x14b6,
  0xf9f2,
  0x02c5,
  0x01d2,
  0xfa62,
  0x0edc,
  0x0c19,
  0xfd1c,
  0x145d,
  0x0a64,
  0xf273,
  0xff26,
  0xf31a,
  0x068b,
  0x0c5b,
  0x04b4,
  0x0475,
  0x03dd,
  0x1428,
  0xfa70,
  0xeec4,
  0xf5ec,
  0xfbd7,
  0x0e08,
  0xf670,
  0xf8e1,
  0x0fe2,
  0x26a4,
  0xe8ca,
  0xf4f5,
  0xfc42,
  0xe355,
  0xfa0c,
  0xf806,
  0xfc32,
  0x0022,
  0x0653,
  0xf477,
  0xf61e,
  0xeef7,
  0xf4d3,
  0x02da,
  0x0df4,
  0x0547,
  0x1900,
  0x17a3,
  0xf88f,
  0xe5e9,
  0xfc12,
  0xf997,
  0xf685,
  0xf370,
  0x0225,
  0x112f,
  0x0856,
  0xfeda,
  0xf877,
  0xf76b,
  0xf33d,
  0xee4a,
  0xfd3b,
  0x01cc,
  0xf87a,
  0x0d83,
  0xfcdf,
  0xf10d,
  0x1d0a,
  0xd88a,
  0xed79,
  0xf8b7,
  0x108a,
  0x06c0,
  0x0895,
  0x1c7f,
  0x0e2f,
  0xffb9,
  0x165a,
  0x067f,
  0x02db,
  0x1eee,
  0x18fd,
  0x1500,
  0x01c7,
  0xfac0,
  0xfff1,
  0xeb76,
  0x086b,
  0x107e,
  0x03b0,
  0x0fdd,
  0xf0dd,
  0x138a,
  0x1e68,
  0xf814,
  0xf4ec,
  0xf5af,
  0x0675,
  0xfbf6,
  0x0a4e,
  0x11e6,
  0xf670,
  0xf4e2,
  0xf976,
  0xe268,
  0xe1f5,
  0x0ece,
  0xfb22,
  0x22dc,
  0x0be2,
  0x0ee6,
  0x0984,
  0xfa7f,
  0xe4cb,
  0xfe1e,
  0x0106,
  0x10c6,
  0x1f28,
  0x21c3,
  0x0350,
  0xf9ec,
  0xf982,
  0xeb01,
  0x0e55,
  0x0700,
  0x07c6,
  0x1167,
  0x084f,
  0x1457,
  0x0ce2,
  0xe67c,
  0xd82d,
  0xb894,
  0xc3f5,
  0xebbd,
  0xfe55,
  0xfb16,
  0xf4e5,
  0x03eb,
  0x08cd,
  0xdf42,
  0xf37e,
  0xd17f,
  0xd2ea,
  0xee36,
  0x01a8,
  0xe029,
  0xe81d,
  0x07d0,
  0xe415,
  0xeaea,
  0xe6ef,
  0xed12,
  0xe72c,
  0x1641,
  0xfaf3,
  0xee99,
  0xf754,
  0xe962,
  0xd577,
  0xf0f5,
  0xfece,
  0xf93f,
  0x02ee,
  0x0daf,
  0x1ac3,
  0x0795,
  0xd5bc,
  0xcc1d,
  0xd07e,
  0xe825,
  0xcb40,
  0xd599,
  0x03db,
  0xf080,
  0xf4b4,
  0xefbe,
  0xd87a,
  0x00a4,
  0x190f,
  0x14a2,
  0x3a1b,
  0x0717,
  0xf99a,
  0x1cb4,
  0xfe6b,
  0x173c,
  0x0e33,
  0xf4dc,
  0x01b2,
  0x0aca,
  0xfba3,
  0xf3bd,
  0xed87,
  0xfaf1,
  0x0258,
  0x06a7,
  0xf81c,
  0x1a1f,
  0xffef,
  0xebb1,
  0xf4c2,
  0xd906,
  0xf274,
  0x0239,
  0x1579,
  0xf55e,
  0x1887,
  0x1656,
  0xfd1f,
  0xff46,
  0x0573,
  0xf002,
  0xfdb5,
  0x1aac,
  0x057a,
  0x0d5b,
  0x08ee,
  0x0db4,
  0xf770,
  0xeee4,
  0xedc7,
  0x0ed1,
  0x008f,
  0x0645,
  0x050e,
  0xf25c,
  0x09b3,
  0xf022,
  0xe820,
  0xe849,
  0x09e4,
  0x0a7f,
  0x07f8,
  0x2bf2,
  0x2a05,
  0xfd3e,
  0xffc0,
  0x0f88,
  0x0524,
  0xe969,
  0xeb16,
  0x0a90,
  0xf893,
  0x17ef,
  0x0479,
  0xfd79,
  0x0d12,
  0xdc8b,
  0xe188,
  0xded7,
  0xf72e,
  0x018b,
  0xf372,
  0xf305,
  0xed8c,
  0xf6c6,
  0xfc8b,
  0x03bd,
  0xe885,
  0x06cd,
  0x0020,
  0x2123,
  0xfa50,
  0x02a4,
  0x07d6,
  0xf0bb,
  0xf4c9,
  0x0489,
  0xfe40,
  0xf729,
  0x027b,
  0xfd7d,
  0xee0a,
  0xf8d1,
  0xed31,
  0x03dd,
  0xfc26,
  0x0535,
  0x168f,
  0x1147,
  0xee00,
  0xf468,
  0xf510,
  0xe2fa,
  0xecc3,
  0x07c1,
  0xf701,
  0xe98d,
  0x0823,
  0x0870,
  0x0a6e,
  0xfa64,
  0xf141,
  0xf9ec,
  0xfe5d,
  0x0bbd,
  0x06ef,
  0x12be,
  0x0089,
  0xf9ba,
  0xf37d,
  0x0190,
  0x1afc,
  0x219e,
  0x0b0d,
  0x20b0,
  0x2ab8,
  0xf3b3,
  0xf6e7,
  0x0b99,
  0xe4fb,
  0xce2e,
  0xf526,
  0x0eb5,
  0x0032,
  0x002e,
  0x2395,
  0x081c,
  0xf747,
  0xd9fc,
  0xe63d,
  0x0100,
  0x0d50,
  0x131f,
  0x12c8,
  0x0eab,
  0xf8a8,
  0xf6cb,
  0xda64,
  0xfff5,
  0xfcaa,
  0xf66e,
  0xf23f,
  0xfb65,
  0xf545,
  0xe718,
  0xede8,
  0xea86,
  0xf04b,
  0xfd4f,
  0x0f4e,
  0x071b,
  0x1fe4,
  0x0da2,
  0x0998,
  0x0576,
  0xf9f8,
  0xf20c,
  0xfbd1,
  0xe333,
  0xe799,
  0xf15a,
  0xdaa7,
  0xf2e7,
  0x0eba,
  0x0b34,
  0x155f,
  0x0da5,
  0x0490,
  0x0f3c,
  0x051f,
  0xfbf3,
  0x02db,
  0xee6c,
  0xf30e,
  0xea64,
  0x05a6,
  0x1305,
  0x0b08,
  0xf111,
  0x0ef9,
  0xec98,
  0xe747,
  0xf98e,
  0xf823,
  0x0ebb,
  0x1d49,
  0xebf8,
  0xfc48,
  0xf723,
  0xcfb1,
  0xd8f6,
  0x2728,
  0x2614,
  0x1d19,
  0x03d4,
  0x0d78,
  0xf67d,
  0xe88c,
  0xf534,
  0xe4c1,
  0xc7de,
  0xee3d,
  0x06ac,
  0xdc98,
  0xdd7f,
  0xf558,
  0x1b8f,
  0x0fd1,
  0x11ee,
  0xe431,
  0xd60c,
  0xf11b,
  0xc902,
  0xcc1a,
  0xea01,
  0xfd0e,
  0xfcaf,
  0xf7e9,
  0xffbb,
  0xfe74,
  0xff6f,
  0xfb4b,
  0xf792,
  0x046c,
  0xf603,
  0xfd86,
  0xf91d,
  0x261a,
  0x1a25,
  0x1f35,
  0x0c0e,
  0x146f,
  0xf27c,
  0xfa84,
  0xf067,
  0xfa27,
  0x13a7,
  0xefd2,
  0x0281,
  0x28e4,
  0x0ba2,
  0xfc58,
  0xff07,
  0xf89f,
  0xfeee,
  0x0191,
  0x037b,
  0x0a98,
  0xebd5,
  0xe92a,
  0x162d,
  0xf203,
  0xfd91,
  0x00bb,
  0xf923,
  0xfacf,
  0xfd41,
  0xf614,
  0xe262,
  0xff35,
  0xdfdd,
  0xebd0,
  0x0b7e,
  0x1aff,
  0x171b,
  0x2230,
  0x2f67,
  0x0bb3,
  0x025d,
  0xfd7b,
  0xeeb7,
  0xf49c,
  0x2787,
  0x021f,
  0x17fc,
  0x250f,
  0x03f7,
  0x0428,
  0xf195,
  0xc017,
  0xe499,
  0x0d06,
  0xf7f1,
  0xfc65,
  0xf9f3,
  0x0a4f,
  0x0fee,
  0xf74a,
  0xf633,
  0x08db,
  0x01db,
  0x075b,
  0xf4fb,
  0x0e2a,
  0x0a28,
  0x0093,
  0x0bb7,
  0x074d,
  0xe3bc,
  0xe2bc,
  0xb210,
  0xcb46,
  0xe6e8,
  0xe0ac,
  0xe377,
  0xfcf2,
  0xd821,
  0xfc2e,
  0x0ab4,
  0xf6e6,
  0xfc48,
  0x2841,
  0x04db,
  0xf813,
  0x0b6d,
  0xd522,
  0xe73a,
  0xef56,
  0xf431,
  0xe7a7,
  0xe92d,
  0xed8a,
  0x2897,
  0x17c8,
  0x23cd,
  0x161a,
  0x0142,
  0x0b4e,
  0xfac4,
  0x025c,
  0xebd8,
  0xe424,
  0x062f,
  0xd0db,
  0xfeac,
  0x07b0,
  0xee69,
  0x0409,
  0x1b1e,
  0xf98a,
  0x159f,
  0x0113,
  0xeab1,
  0x044e,
  0x168a,
  0xfbd8,
  0x0079,
  0x0c1d,
  0xfa11,
  0xf619,
  0x0b92,
  0x0a44,
  0x065a,
  0x0f18,
  0xd14a,
  0xe0a6,
  0x0fab,
  0x1389,
  0xedd3,
  0x0d01,
  0xf97c,
  0xe250,
  0xf55e,
  0xff43,
  0x0523,
  0xe2bf,
  0xdab9,
  0xe57d,
  0xfbaf,
  0xe245,
  0x0533,
  0xf2e6,
  0xe81e,
  0x0ef4,
  0xdccb,
  0xec85,
  0x03f1,
  0x0487,
  0xe33f,
  0xf7f2,
  0xf465,
  0xf3b7,
  0xe25d,
  0xacad,
  0xfab0,
  0x1622,
  0xfdf8,
  0x073a,
  0x1415,
  0x0ba7,
  0xecdf,
  0x094f,
  0x063e,
  0xebbf,
  0xeb30,
  0xfd69,
  0xe96b,
  0xe4a4,
  0xf9d8,
  0xe0b7,
  0xf04a,
  0xf8fe,
  0xe9be,
  0xf702,
  0xf414,
  0xeac5,
  0xebe8,
  0x0eed,
  0x14ed,
  0x07d2,
  0x25b9,
  0xf876,
  0x033c,
  0x0bca,
  0xe21e,
  0xedd9,
  0x1a74,
  0xfa9e,
  0xfc6c,
  0x0cea,
  0xe5a4,
  0xf4b5,
  0x2626,
  0x0bb1,
  0xfacb,
  0x1783,
  0x0a01,
  0xf8d4,
  0xf5d6,
  0xfd97,
  0x0304,
  0xfc3a,
  0x034d,
  0x1796,
  0xf10b,
  0xd5a8,
  0xea85,
  0x0bdb,
  0xfc5d,
  0x149c,
  0xf5dc,
  0xf703,
  0xf65b,
  0xd813,
  0x04bc,
  0x1841,
  0xdccf,
  0xf77a,
  0x1f62,
  0xe1ff,
  0xed6c,
  0x027f,
  0xf2fe,
  0xf1e6,
  0xe130,
  0xe7db,
  0xe083,
  0xe1cf,
  0xf859,
  0xf63e,
  0xf145,
  0x046b,
  0xfdc8,
  0xf820,
  0xfdfc,
  0xf5e0,
  0xf8d5,
  0x18d7,
  0x18cf,
  0x0e8d,
  0x0dc4,
  0x072d,
  0xf8a9,
  0xff5e,
  0x0261,
  0x05ae,
  0x1123,
  0x13ee,
  0x0f78,
  0xf35e,
  0xf8ef,
  0x02bc,
  0xe19f,
  0xe787,
  0xfb90,
  0xf9a3,
  0xf2eb,
  0xf1a2,
  0xf43e,
  0x03e6,
  0x2571,
  0x02b9,
  0xfa62,
  0x0061,
  0xf9df,
  0xea5b,
  0x013b,
  0xd665,
  0xf65e,
  0x1fba,
  0xf4d9,
  0x0096,
  0x0a9f,
  0xffb2,
  0x08de,
  0xf7c6,
  0x0a42,
  0x041e,
  0xfa93,
  0xf581,
  0xf35b,
  0xeec3,
  0xf192,
  0x0d3d,
  0x0fba,
  0xfb57,
  0x0a7c,
  0x1673,
  0xfc08,
  0x06c6,
  0x1bbc,
  0x042d,
  0x040b,
  0x00d0,
  0x0889,
  0x0c2d,
  0xfbd4,
  0x03fd,
  0xf61f,
  0x014e,
  0x075b,
  0x0551,
  0xf90b,
  0xfd31,
  0xfe34,
  0x1258,
  0xe1ec,
  0xf3f5,
  0x0b26,
  0x00d1,
  0xe830,
  0xfba8,
  0xf5af,
  0x04dd,
  0x00a5,
  0xd9e1,
  0x09d6,
  0x0813,
  0xf921,
  0x026c,
  0xfa26,
  0x0803,
  0x1446,
  0x0b7d,
  0x0223,
  0x191b,
  0x23b5,
  0xfb34,
  0x09e6,
  0x1438,
  0xf7f0,
  0xf2d6,
  0xeeba,
  0x155d,
  0x17da,
  0x059e,
  0xf7cf,
  0xf5d3,
  0xef0a,
  0xfea6,
  0x04b5,
  0x007b,
  0xd9e1,
  0xf0df,
  0xf5e5,
  0xe891,
  0xd205,
  0xe998,
  0x0e17,
  0x118d,
  0x19ae,
  0x0040,
  0xf6e3,
  0x0637,
  0x02ba,
  0xfba7,
  0x07dd,
  0xe685,
  0xf3b4,
  0x15e9,
  0x06b3,
  0x0349,
  0xeedb,
  0x02ca,
  0x07d9,
  0xfa91,
  0x0a65,
  0x06c3,
  0x0598,
  0x0031,
  0x0fcc,
  0x02c3,
  0x24f4,
  0x17a7,
  0x1144,
  0x04e2,
  0x0129,
  0x1885,
  0xd527,
  0xe88a,
  0xfbb2,
  0xddee,
  0x04b3,
  0xee20,
  0xfbde,
  0xfb00,
  0x00b7,
  0xfe59,
  0x05c2,
  0xf1d4,
  0x20ee,
  0x11d3,
  0xfec7,
  0xf48a,
  0x057a,
  0xf5c4,
  0x17ff,
  0x1b74,
  0x0b24,
  0xf3bc,
  0xfae1,
  0xf954,
  0xf8a8,
  0xf2df,
  0x0ba2,
  0xeb9e,
  0xf858,
  0x0ab2,
  0x02c1,
  0xfaa0,
  0x087b,
  0xfca0,
  0xef93,
  0xf26a,
  0x0bff,
  0xfd11,
  0x0e96,
  0x1b70,
  0xfcad,
  0xfdc1,
  0xcd76,
  0xebbf,
  0x0549,
  0xd8eb,
  0xf8a7,
  0xfed3,
  0x1206,
  0x1ab3,
  0x208e,
  0xe57d,
  0xfb8c,
  0x0bf8,
  0xf1c6,
  0x06f7,
  0x020d,
  0xe257,
  0xe1c7,
  0xff62,
  0x051c,
  0x088c,
  0x081d,
  0xe7c1,
  0xff4c,
  0x012b,
  0xd018,
  0xf00a,
  0x02ee,
  0x094d,
  0xf210,
  0xfd8c,
  0x0e89,
  0xfecc,
  0x0edb,
  0x0cad,
  0xf1a5,
  0xfa81,
  0x0e88,
  0xf65a,
  0xef61,
  0xfc3a,
  0xf988,
  0xdfad,
  0x080d,
  0x01bc,
  0x0a34,
  0xff3d,
  0xfc9a,
  0xf13c,
  0xd554,
  0x0e26,
  0x0063,
  0x012c,
  0x01b1,
  0xf4af,
  0xf172,
  0xeccc,
  0xfd0c,
  0xe41c,
  0xf2d9,
  0xe95b,
  0xfab7,
  0xf870,
  0xf28c,
  0x0931,
  0xf636,
  0xf9cd,
  0x00dd,
  0xe599,
  0xee81,
  0x1092,
  0x073e,
  0xf596,
  0xf3fc,
  0xee2a,
  0xefbd,
  0x0b23,
  0x1521,
  0x079c,
  0x0597,
  0x061b,
  0x090c,
  0xe4ea,
  0xe397,
  0xe076,
  0xea73,
  0xf8ac,
  0x14fe,
  0x03a5,
  0xf8e5,
  0x06fa,
  0xeb17,
  0xe342,
  0xdcab,
  0xfc7a,
  0xd96c,
  0xda6f,
  0xf110,
  0xf6dd,
  0xfd5b,
  0x02fa,
  0xff41,
  0x069c,
  0x2d27,
  0x1930,
  0xfd0d,
  0x0e04,
  0x155b,
  0xf493,
  0xfaa2,
  0x07a5,
  0x14b9,
  0x17e2,
  0x12c0,
  0x0879,
  0x107d,
  0x0940,
  0xd7a8,
  0xd995,
  0xe615,
  0xf7cc,
  0xd77c,
  0xf2af,
  0x05cb,
  0xea9b,
  0xf17c,
  0x1e68,
  0xc1ec,
  0xfd58,
  0x0938,
  0x12d7,
  0x21ee,
  0xfaa3,
  0x0483,
  0x0a86,
  0xf942,
  0x0370,
  0x09fc,
  0xf96e,
  0xed6a,
  0x046a,
  0x0848,
  0xff72,
  0xeff0,
  0xe2c0,
  0xef9b,
  0xfb96,
  0xfc56,
  0x0308,
  0x10d4,
  0xfde4,
  0x0fda,
  0xfd39,
  0xf761,
  0x07e7,
  0x31e3,
  0x128c,
  0x1652,
  0x2783,
  0xfb11,
  0x04f7,
  0x0f56,
  0xe5e7,
  0xeb62,
  0xe718,
  0xdfb2,
  0xf0b9,
  0xe2b5,
  0xefb2,
  0xef31,
  0xe6ff,
  0xf0c7,
  0xefd6,
  0xdf67,
  0xfc04,
  0xe781,
  0xe7f9,
  0xf3a0,
  0xc9af,
  0xe60c,
  0xed98,
  0xe766,
  0xb16e,
  0xefb3,
  0xeefb,
  0xdb81,
  0xe579,
  0xf5cc,
  0xe21b,
  0xf744,
  0x1d02,
  0x2235,
  0x23b4,
  0x3292,
  0x1a77,
  0x189e,
  0xff44,
  0xf80a,
  0xef7b,
  0xe4c7,
  0x0453,
  0xddca,
  0xe3c2,
  0xe66d,
  0xa3c4,
  0xe070,
  0xdb98,
  0xf62f,
  0xfcce,
  0x1627,
  0xffb8,
  0xf723,
  0x1d9f,
  0x1f30,
  0xf53a,
  0x1686,
  0x274f,
  0xe052,
  0xf09d,
  0xf9a0,
  0xf19e,
  0xfbdb,
  0x1261,
  0xd6ab,
  0x1a4d,
  0x02d1,
  0x21ff,
  0x03e8,
  0xe9d5,
  0xf5a2,
  0xf998,
  0xfeb8,
  0xedfd,
  0xf386,
  0xf329,
  0xea3c,
  0x11ae,
  0x1d82,
  0x1939,
  0x2763,
  0x1cd6,
  0x0de9,
  0x0c0f,
  0xe73d,
  0xe932,
  0xe80e,
  0xe922,
  0xfdad,
  0x191d,
  0x23de,
  0x0857,
  0x1b90,
  0xfce0,
  0xf32e,
  0x003f,
  0x005b,
  0x1928,
  0x06c7,
  0xf5fd,
  0x085a,
  0x063e,
  0xe86c,
  0x2e17,
  0x021e,
  0xf1f5,
  0x2afa,
  0xeaa4,
  0xdd11,
  0xf3e3,
  0xdec8,
  0xf615,
  0xeef2,
  0xeed4,
  0x00a0,
  0xfdb8,
  0xff84,
  0xff62,
  0xf5f5,
  0xf972,
  0xf4f5,
  0xf1e2,
  0x17f2,
  0xebf5,
  0xf30d,
  0xd767,
  0xdba8,
  0xea09,
  0xede9,
  0x1497,
  0xd157,
  0xf14e,
  0x1696,
  0xf851,
  0x0554,
  0x18a3,
  0x0a92,
  0x14f3,
  0x0392,
  0xe854,
  0xf13f,
  0xe9d8,
  0xec40,
  0xfcfb,
  0x1aea,
  0xfc38,
  0x00eb,
  0xf463,
  0xfcfa,
  0xdafb,
  0xf243,
  0xe099,
  0xffb7,
  0xfed9,
  0xed10,
  0x0e56,
  0xeda2,
  0xf77d,
  0x135a,
  0x12cd,
  0x162d,
  0xf0a4,
  0xf7bb,
  0xf4c3,
  0xf74d,
  0xf98c,
  0xf82b,
  0xf21a,
  0xe7a0,
  0x11ba,
  0xf388,
  0xf899,
  0x0cdd,
  0xef5e,
  0xf3e0,
  0xfaac,
  0x18a6,
  0x2593,
  0x1b5c,
  0x102d,
  0x29bf,
  0x13c2,
  0xf8e2,
  0xf023,
  0xfae6,
  0xe370,
  0xdf93,
  0xfc81,
  0xc733,
  0x0d0b,
  0xec98,
  0xf085,
  0x13da,
  0xea94,
  0x0076,
  0xd62b,
  0xf197,
  0xf4f2,
  0xec74,
  0x0720,
  0xec5c,
  0xf049,
  0x0fa7,
  0x0ad1,
  0xf71b,
  0x3ae8,
  0x07d5,
  0xf091,
  0x10b0,
  0xf5fb,
  0xd8d2,
  0x06a2,
  0x0e5b,
  0x09c8,
  0x102f,
  0x09c9,
  0x0d88,
  0xfa80,
  0xf6d5,
  0x09f4,
  0xf526,
  0xe5bd,
  0xf326,
  0xe1fc,
  0xddd1,
  0xd14e,
  0xf3ec,
  0xf148,
  0xf225,
  0x01df,
  0x08ac,
  0xf59c,
  0xea8d,
  0xf01e,
  0xda4b,
  0x0059,
  0x0bd0,
  0x0120,
  0x075f,
  0xfd1e,
  0xf8de,
  0xfeac,
  0xf567,
  0xf6c0,
  0x1092,
  0x0251,
  0x0604,
  0xf554,
  0xf533,
  0xf4de,
  0x1928,
  0x0699,
  0xf404,
  0x114d,
  0x01d6,
  0xfef4,
  0xfe88,
  0x0345,
  0x0d46,
  0xfae1,
  0x0056,
  0x113a,
  0xfdae,
  0xfe12,
  0x10ac,
  0x045b,
  0x0aa1,
  0x1a4d,
  0xf297,
  0x02e7,
  0xffb7,
  0xf346,
  0x0947,
  0xfbd9,
  0xfda8,
  0xf9b7,
  0x0087,
  0xfde0,
  0x0320,
  0xfd64,
  0x09c5,
  0x09fb,
  0x0bd2,
  0xf20c,
  0xeb70,
  0xe92d,
  0xed02,
  0x088b,
  0xe17e,
  0xfdbd,
  0x0713,
  0xf9b0,
  0xdcfb,
  0xdab7,
  0xec88,
  0xf5e3,
  0xe996,
  0xea33,
  0x149b,
  0x0216,
  0xfae6,
  0x0706,
  0x203d,
  0x13f9,
  0x0c80,
  0x168c,
  0xf260,
  0x019a,
  0x117d,
  0xf500,
  0x0555,
  0xf735,
  0x045f,
  0x0ebe,
  0x038d,
  0xfc7d,
  0xfc5c,
  0xefcd,
  0xfb72,
  0xf77d,
  0xe43c,
  0xf346,
  0xe3dd,
  0xc878,
  0xdb82,
  0xfc96,
  0xec73,
  0xf2fa,
  0xf95f,
  0xed5d,
  0xf73d,
  0x1d9e,
  0x0344,
  0x0580,
  0x101a,
  0xf8ea,
  0xff58,
  0x00d7,
  0x0cba,
  0x0553,
  0x19e1,
  0x10d4,
  0x1533,
  0x1eba,
  0x1296,
  0x0dbc,
  0xfad4,
  0xf639,
  0x03a1,
  0xfb2f,
  0x0d67,
  0x07dc,
  0x0826,
  0x158c,
  0x03f4,
  0x0d47,
  0x1605,
  0x1dae,
  0x059b,
  0xfdea,
  0xf68f,
  0xfea1,
  0xff8b,
  0x0734,
  0x05ba,
  0xff65,
  0xf58c,
  0x036a,
  0x02f0,
  0xff01,
  0xffad,
  0x0ef7,
  0x09cd,
  0xfd95,
  0x05a5,
  0x0f7f,
  0x0fbc,
  0x0f4b,
  0x1046,
  0xfd45,
  0x0534,
  0x00b5,
  0x06d5,
  0xf6eb,
  0x0d63,
  0xee86,
  0xf4b6,
  0xfb2e,
  0x013a,
  0x09e2,
  0x0605,
  0x036e,
  0xf840,
  0x02d6,
  0x0750,
  0xf6ee,
  0x006a,
  0x0c06,
  0xf6d0,
  0xfff9,
  0xfb76,
  0x150c,
  0x0d09,
  0x0133,
  0x065a,
  0xf6a0,
  0x0f3d,
  0x06d8,
  0x04a9,
  0xe6c5,
  0xe98a,
  0xea4d,
  0xf481,
  0x0488,
  0x0832,
  0xf4a2,
  0x0411,
  0x0546,
  0x0572,
  0xf6e8,
  0xff1f,
  0x157b,
  0x0c3e,
  0x069c,
  0x0a51,
  0x05d2,
  0x0666,
  0x183b,
  0x0727,
  0x1916,
  0x0704,
  0x0b59,
  0xf4a1,
  0xf5c6,
  0xfc5f,
  0x0d33,
  0xf080,
  0xf337,
  0xfaca,
  0x055a,
  0x0eee,
  0x1618,
  0x0d5d,
  0x0d15,
  0x119e,
  0xfca4,
  0xfa42,
  0xffd3,
  0xffd4,
  0xfcf6,
  0xe61c,
  0x0776,
  0x0226,
  0x089d,
  0xfc38,
  0x0374,
  0xfe4b,
  0xef6d,
  0xf03d,
  0xe8d8,
  0x1095,
  0x0e7d,
  0xfdc8,
  0x0151,
  0xfff3,
  0x0215,
  0xfde1,
  0xfc63,
  0xe439,
  0xff2b,
  0x0b13,
  0xfb3e,
  0xf507,
  0x0254,
  0xfca9,
  0x04c2,
  0x05ef,
  0xf219,
  0x0752,
  0x12e1,
  0xfd7e,
  0xf8c1,
  0xf34c,
  0x0908,
  0x039d,
  0x019f,
  0xeb13,
  0x0b31,
  0x0949,
  0xfda2,
  0x037f,
  0x0239,
  0x0784,
  0xf9ac,
  0xf252,
  0xfba6,
  0xff86,
  0xf9b1,
  0xff69,
  0xe38e,
  0xef2b,
  0xf381,
  0x0ba1,
  0xfeec,
  0x0faa,
  0xdc40,
  0xdcc2,
  0x070e,
  0x0a93,
  0x0368,
  0x0f28,
  0x1fbd,
  0x0b63,
  0x0ccf,
  0x1504,
  0x0cbf,
  0xf92a,
  0x1ecb,
  0x03e1,
  0x069b,
  0x1814,
  0x0d88,
  0x0a56,
  0xfffe,
  0x0305,
  0xf80c,
  0x069e,
  0x217e,
  0x05ff,
  0x01fc,
  0x08a9,
  0x12df,
  0xf9f5,
  0xfdbb,
  0x088a,
  0xfe9a,
  0xfbb1,
  0x0236,
  0x10d4,
  0xff7c,
  0x1343,
  0x03de,
  0x088a,
  0xf867,
  0xe7e6,
  0xfa09,
  0x1049,
  0xe9d8,
  0xedff,
  0x0294,
  0x0769,
  0x0059,
  0xfb9d,
  0xf6b2,
  0xf0b1,
  0x0548,
  0xea83,
  0xeab0,
  0xf666,
  0xf6b0,
  0xfaaf,
  0xf1f0,
  0x010d,
  0x1715,
  0x14ba,
  0xf80f,
  0x0ffc,
  0x13c1,
  0xf637,
  0xf5d7,
  0xf3a4,
  0xfc0e,
  0xea3e,
  0x1246,
  0x1219,
  0x01e8,
  0x18ed,
  0x0bc0,
  0x0d15,
  0x123e,
  0x06c0,
  0x0a7f,
  0xfd47,
  0x0140,
  0x1621,
  0xf51f,
  0x0641,
  0x2dc6,
  0x0913,
  0x0791,
  0x0b37,
  0x0298,
  0x14fc,
  0x14cd,
  0x12c0,
  0x0230,
  0x08bc,
  0xf7f8,
  0x0c22,
  0x0e99,
  0x0620,
  0xff4a,
  0x012e,
  0x10d8,
  0x02a5,
  0xed2f,
  0xf63a,
  0x016d,
  0xf004,
  0x022d,
  0x07fd,
  0xfd7e,
  0xfea6,
  0x0a8f,
  0x0a72,
  0x0200,
  0x0f7d,
  0x14d6,
  0x298a,
  0x06a8,
  0x20eb,
  0x396b,
  0x0f38,
  0x1944,
  0x2e0f,
  0xef6e,
  0xee32,
  0xf2e3,
  0xd565,
  0xe9f4,
  0xefc9,
  0xe5dd,
  0xdfd0,
  0xe2bc,
  0xfb76,
  0x0b93,
  0x1c24,
  0x0666,
  0x0d23,
  0x1ba0,
  0xea0f,
  0x02cd,
  0x0442,
  0xf76a,
  0xdadf,
  0xfa1b,
  0x1078,
  0xf9c7,
  0x0715,
  0x0275,
  0x05b7,
  0x02bf,
  0x0593,
  0x0f2d,
  0x0c60,
  0xfee9,
  0x0732,
  0x062a,
  0xf0e0,
  0xfb0f,
  0xfc68,
  0xf819,
  0xfefb,
  0x1875,
  0xd748,
  0xedc6,
  0xff2a,
  0xec93,
  0xf9f3,
  0xeaa7,
  0xfe56,
  0xf45d,
  0x0b44,
  0xfaa2,
  0x053b,
  0x24b4,
  0xec02,
  0x037a,
  0x0c29,
  0xf0e2,
  0xf51c,
  0xff67,
  0xfe95,
  0x05b0,
  0x2199,
  0xfee1,
  0x0a84,
  0x0fe1,
  0xf3e2,
  0xfba8,
  0x0fd0,
  0xf863,
  0x052f,
  0x070e,
  0x09b7,
  0x0f59,
  0x087e,
  0x0956,
  0x0fbb,
  0x1726,
  0x0986,
  0x0f44,
  0x183a,
  0xf8d3,
  0x123e,
  0x1170,
  0xe001,
  0xec6e,
  0xe57a,
  0xf8b9,
  0xe9b7,
  0x00d4,
  0xf419,
  0xedd4,
  0xf777,
  0x0605,
  0xeceb,
  0x07ce,
  0x074b,
  0xea38,
  0x07fd,
  0xf439,
  0xf7c2,
  0xfc0f,
  0xea6f,
  0xfa4a,
  0xf935,
  0xbf7a,
  0xdb1b,
  0xf042,
  0xdbef,
  0xd086,
  0xfdba,
  0x08d7,
  0x0f0f,
  0x1a57,
  0x0b4e,
  0x0332,
  0x1c21,
  0xfd22,
  0xfd9f,
  0x0e21,
  0xf1e4,
  0x048e,
  0x04af,
  0x0679,
  0x0adf,
  0x1625,
  0xffa6,
  0xfd96,
  0x0787,
  0x0857,
  0x0ba2,
  0x0f66,
  0x1afe,
  0x11b2,
  0x0a8f,
  0xf846,
  0xf1e8,
  0xe5ab,
  0xfa74,
  0x00c9,
  0x006c,
  0x0af0,
  0x026c,
  0xf56b,
  0x00fb,
  0x0098,
  0xf865,
  0xffbc,
  0x0132,
  0xfaf8,
  0x0d31,
  0x0a76,
  0x0f03,
  0x1690,
  0x166f,
  0xf2fd,
  0xf4be,
  0xfcc0,
  0x01b5,
  0xf511,
  0x0156,
  0x1c99,
  0xf56a,
  0xf797,
  0x13fe,
  0x06e6,
  0x085b,
  0x0897,
  0x02f8,
  0xfaa3,
  0xf21b,
  0x0ff3,
  0xf4c4,
  0xe38b,
  0xf5f6,
  0xf994,
  0x085e,
  0xf9ab,
  0x067e,
  0x05a9,
  0xf468,
  0xff52,
  0x0817,
  0x01ba,
  0xf68c,
  0xeeb7,
  0x0362,
  0x051e,
  0x1871,
  0xf2d1,
  0x07df,
  0x0156,
  0xe292,
  0xfafe,
  0xf04e,
  0x017c,
  0xf120,
  0x01f0,
  0x0317,
  0x0637,
  0x05aa,
  0x008f,
  0x003d,
  0x0c67,
  0xf1d2,
  0x1834,
  0x214a,
  0xf518,
  0x02da,
  0x1b26,
  0xe71f,
  0xe434,
  0xfcdb,
  0xec2d,
  0xe548,
  0xec3a,
  0xff09,
  0x092a,
  0x0f13,
  0xe8ca,
  0xe9a5,
  0xedfd,
  0x1173,
  0x07d3,
  0x1028,
  0x0619,
  0x02ce,
  0xfe4d,
  0x010c,
  0xff21,
  0x0487,
  0xec8a,
  0xf48c,
  0xf71a,
  0x06eb,
  0xfdc2,
  0xe703,
  0x0a62,
  0x0ae6,
  0x1d36,
  0xf6f2,
  0x2aa4,
  0x4058,
  0xf76a,
  0x1d5b,
  0x1a15,
  0x028b,
  0x0918,
  0x0848,
  0xffac,
  0x2805,
  0x36ec,
  0xda1f,
  0x1f6a,
  0x0a0a,
  0xfc3f,
  0xecb9,
  0x1051,
  0xe329,
  0xfc81,
  0x1df6,
  0xf052,
  0xf189,
  0x16e9,
  0xeccb,
  0xea8c,
  0xf4f8,
  0xe141,
  0xf44a,
  0xef34,
  0x1237,
  0x0400,
  0x06a6,
  0xf791,
  0x069d,
  0x0dd6,
  0x03e1,
  0x2179,
  0x29cf,
  0xecce,
  0x1e19,
  0x0ce6,
  0xfff6,
  0xf96a,
  0x0554,
  0x189d,
  0x2071,
  0x164a,
  0x02f8,
  0x04ea,
  0x0918,
  0x1053,
  0x14d7,
  0x0593,
  0xfc5c,
  0x0dfe,
  0x04de,
  0xfddc,
  0xfe90,
  0xf11e,
  0xe6ef,
  0xe166,
  0xfe39,
  0xebbf,
  0x0d0c,
  0x1dc4,
  0x01ab,
  0xf887,
  0x06f9,
  0x017b,
  0x01fc,
  0x0176,
  0x0bae,
  0xfb93,
  0x002f,
  0x0fd8,
  0x04d7,
  0x009e,
  0xf003,
  0xfb07,
  0x19e5,
  0xec16,
  0xf170,
  0x0268,
  0xea37,
  0xf62e,
  0xf896,
  0xf987,
  0xfa71,
  0xf165,
  0x0027,
  0xfee6,
  0x004c,
  0xf3fe,
  0x00fb,
  0x067c,
  0xfce8,
  0xfb5d,
  0x04c7,
  0x117c,
  0xfac0,
  0xfdf3,
  0x010d,
  0x0e8d,
  0xffaf,
  0xfa09,
  0xf984,
  0xfefd,
  0x04c1,
  0x064e,
  0x0608,
  0xf8d8,
  0x062d,
  0x003d,
  0xe7ba,
  0xdc1d,
  0xeda7,
  0xfe5c,
  0x116c,
  0x1895,
  0xf0c6,
  0x1e6b,
  0x0679,
  0x0350,
  0x0291,
  0xfdec,
  0x08f4,
  0x2411,
  0x082a,
  0xf52d,
  0xeb69,
  0xea98,
  0xd779,
  0xdda2,
  0xfe94,
  0xd6f0,
  0xedcd,
  0xf890,
  0xee24,
  0xfcf5,
  0x0e07,
  0xef15,
  0xf564,
  0x05eb,
  0x0226,
  0xf834,
  0x0690,
  0x053f,
  0x1a20,
  0x048c,
  0x1007,
  0x0297,
  0x02a7,
  0xfb21,
  0xe765,
  0xf52c,
  0xfd72,
  0x092b,
  0x07e5,
  0xe2f3,
  0xd63a,
  0xf266,
  0x0357,
  0x07ce,
  0x1df0,
  0x06be,
  0x1196,
  0xf561,
  0xf144,
  0x0130,
  0x0680,
  0x0183,
  0x0d9c,
  0xedfc,
  0x0af1,
  0xfda1,
  0xe079,
  0xe6d3,
  0xe800,
  0x00f1,
  0xe7ad,
  0xfcab,
  0x0b87,
  0xfc1d,
  0x053c,
  0x16bf,
  0xfefd,
  0xf663,
  0xf695,
  0xf81b,
  0xfb3f,
  0xfdda,
  0xfb74,
  0xfc19,
  0x107f,
  0xfbca,
  0x1725,
  0x1799,
  0xff53,
  0x2588,
  0x137b,
  0xe15b,
  0x00b6,
  0xf339,
  0xfcb2,
  0xf46f,
  0xfb51,
  0x0a59,
  0xe9ae,
  0xf103,
  0x0350,
  0xfe1f,
  0xfcdd,
  0x0d64,
  0xecd2,
  0xf4f4,
  0xe0e5,
  0xe0b9,
  0xf578,
  0x0798,
  0xfef4,
  0xea91,
  0x0ea9,
  0x21f7,
  0x00f3,
  0x0454,
  0xf9ae,
  0xed6d,
  0x02bb,
  0xf672,
  0xf518,
  0xe4cd,
  0x041e,
  0xf9d0,
  0x0b21,
  0x2d81,
  0x1c2e,
  0x220a,
  0x4ba7,
  0x26e2,
  0xf005,
  0x0dbc,
  0x1693,
  0x0798,
  0x389b,
  0x2dad,
  0x3f1a,
  0x5143,
  0x2136,
  0xf5d2,
  0xf66f,
  0xe5fa,
  0xdc1c,
  0x0432,
  0xff4a,
  0xfdfe,
  0xdbd4,
  0xdb8c,
  0xebf2,
  0xfa8f,
  0x1194,
  0xdd72,
  0xcbfd,
  0xe83b,
  0xdcd4,
  0xdddc,
  0xf2f7,
  0xfead,
  0xea7d,
  0xfa6b,
  0xd7a9,
  0xfc89,
  0x067f,
  0x05fb,
  0xed16,
  0xdc14,
  0x1fd6,
  0x098d,
  0x035a,
  0x28e2,
  0x39d9,
  0x1fe0,
  0x28d0,
  0x2eeb,
  0x346f,
  0xe6fd,
  0xfef2,
  0x014b,
  0xfa43,
  0x0885,
  0x0373,
  0xfb0f,
  0x06aa,
  0xe63d,
  0xe0c4,
  0xe36e,
  0xf611,
  0xd3c8,
  0xe742,
  0xe7d1,
  0xd811,
  0xc824,
  0xcb4a,
  0x0bf7,
  0x0b67,
  0xfbec,
  0x03d0,
  0x0bd2,
  0x07d0,
  0x00b8,
  0xf98f,
  0xe411,
  0xfd4f,
  0xffe2,
  0xee94,
  0x06ea,
  0x093c,
  0x0779,
  0xf83c,
  0x0345,
  0xf991,
  0x178e,
  0x12ea,
  0x09a9,
  0xfa89,
  0x0bb2,
  0x1767,
  0xf05f,
  0xf1f3,
  0x0246,
  0x06fa,
  0x1441,
  0xebef,
  0x0da9,
  0x136d,
  0xdd56,
  0x142f,
  0x0be1,
  0xe9a3,
  0xe59a,
  0xe4a5,
  0xf84c,
  0xf9a6,
  0x0d78,
  0x0110,
  0x0cd1,
  0x05fb,
  0xf727,
  0xfaa5,
  0xf83b,
  0xf9f9,
  0xe1c1,
  0x016e,
  0x1d85,
  0x006e,
  0x2a88,
  0x2264,
  0xd0a3,
  0xc7b0,
  0xdca4,
  0xdc3a,
  0xe415,
  0xed28,
  0xf1c4,
  0xeffc,
  0xfacc,
  0xf712,
  0x0b6b,
  0x035c,
  0x0e58,
  0x396e,
  0x32e8,
  0x2f17,
  0x4369,
  0x16ad,
  0xec7b,
  0xfa57,
  0x058e,
  0xe029,
  0xe311,
  0xf19f,
  0xfd8c,
  0xdf54,
  0xe459,
  0xe75e,
  0xf7c3,
  0xe5a2,
  0xf89c,
  0xfefc,
  0x1829,
  0x1591,
  0x3070,
  0x10ad,
  0x1d3e,
  0x29b3,
  0x08d1,
  0x01c3,
  0x0994,
  0xe88c,
  0x01ae,
  0xdb7f,
  0xdf10,
  0x0700,
  0x08d0,
  0x02cd,
  0xf1bc,
  0xf125,
  0x043a,
  0xf9b0,
  0x0b90,
  0xf83d,
  0xeb13,
  0xdfbf,
  0xe7eb,
  0xf182,
  0x0330,
  0xfcb5,
  0xff8d,
  0xf846,
  0xd8ec,
  0xe0b0,
  0xd64d,
  0xfaba,
  0xef28,
  0xf362,
  0xf147,
  0x0712,
  0x0f6e,
  0xd5a6,
  0x1088,
  0xd167,
  0xf7bb,
  0xea0b,
  0xd44a,
  0x0490,
  0xdc23,
  0xd5fe,
  0xdd0e,
  0x06d4,
  0x062e,
  0x0dbf,
  0xf339,
  0xe131,
  0xf223,
  0xe05d,
  0xded8,
  0xf4b8,
  0x0172,
  0x068a,
  0x0857,
  0x1b27,
  0x320c,
  0x1282,
  0x37ca,
  0x29ae,
  0x0281,
  0xf147,
  0xf061,
  0xf8b0,
  0x06b6,
  0x251e,
  0x0e50,
  0x1212,
  0x0ffb,
  0x097b,
  0x0c8f,
  0x30d0,
  0x12b1,
  0x09f4,
  0x2506,
  0x1d18,
  0x33e8,
  0x50dc,
  0x28d7,
  0x1d3e,
  0xf737,
  0xe845,
  0xf784,
  0xdeb5,
  0xe9f6,
  0x02ae,
  0x0fa4,
  0xfcab,
  0xeb7f,
  0xe85d,
  0xf47e,
  0x04c9,
  0xf6d9,
  0xe96f,
  0xef6d,
  0xf272,
  0xef1d,
  0xfacc,
  0xf737,
  0xfc35,
  0x0d22,
  0x1cf4,
  0x21e3,
  0x469f,
  0x44e9,
  0x1222,
  0x03e6,
  0xe3c6,
  0x0f97,
  0x0ee3,
  0xfadb,
  0xfb9a,
  0xf22a,
  0x0593,
  0x1647,
  0x05a7,
  0x21a7,
  0xe1e3,
  0xf2a7,
  0x3fb5,
  0xea05,
  0xf793,
  0x1996,
  0xef4a,
  0x0134,
  0x1411,
  0xddb7,
  0xfc20,
  0x0fba,
  0xed94,
  0x0f64,
  0xf572,
  0x0c1c,
  0xf47a,
  0x0b18,
  0x0597,
  0xf22a,
  0x1044,
  0xf561,
  0x01ce,
  0xfe3e,
  0xf9ad,
  0xfbeb,
  0x1b6a,
  0xe320,
  0xf1d7,
  0x37ce,
  0xdc51,
  0xf0c0,
  0x1f96,
  0xe4d3,
  0xeca7,
  0xebab,
  0x07eb,
  0xec1c,
  0xf9ad,
  0x0f17,
  0x1a51,
  0xfc3f,
  0x0846,
  0xf7d5,
  0xe1b4,
  0x05d7,
  0x08a7,
  0xf392,
  0x08f2,
  0xfb9c,
  0x04b9,
  0xfee2,
  0xf648,
  0x0922,
  0x06ad,
  0xe3eb,
  0x1073,
  0xed66,
  0xfee2,
  0x1275,
  0xedf9,
  0xf5ab,
  0x0055,
  0xfed6,
  0xea9c,
  0x1428,
  0xf88a,
  0x01cc,
  0x021e,
  0x089f,
  0xfc12,
  0xfdef,
  0xf024,
  0xfe7a,
  0x01d6,
  0xfbf7,
  0xf7d9,
  0x0ed2,
  0xffcc,
  0xf509,
  0xfc26,
  0xfaf3,
  0xeb45,
  0x05bd,
  0xea4d,
  0xfa1a,
  0xfb88,
  0xfaee,
  0x0000,
  0xfa13,
  0xffb2,
  0xf5a9,
  0xf911,
  0xf5f1,
  0x0a13,
  0xef15,
  0xed50,
  0xf79b,
  0xfc17,
  0x0ce8,
  0x0087,
  0x0217,
  0x09f6,
  0xff43,
  0xed6a,
  0x03fe,
  0x05b1,
  0x09b5,
  0xff1b,
  0x005f,
  0xff95,
  0x1446,
  0x0d1f,
  0x0bd4,
  0x0560,
  0xf09e,
  0xf03d,
  0x0f22,
  0xfc99,
  0xed6d,
  0x0673,
  0xfca3,
  0x0310,
  0xeb99,
  0xfc4b,
  0x1322,
  0xed38,
  0xfe49,
  0x0650,
  0x0f7d,
  0xf983,
  0x078b,
  0xfb01,
  0xef6f,
  0xe714,
  0xf158,
  0xf7a6,
  0x0c37,
  0xff9a,
  0xf6f4,
  0xf9d4,
  0x1077,
  0xec58,
  0x1642,
  0x013a,
  0x076a,
  0x0163,
  0x0106,
  0x0c0c,
  0x01da,
  0xfa7b,
  0xef41,
  0xee30,
  0x0681,
  0xe77d,
  0xe70a,
  0x0791,
  0xff77,
  0xfdc9,
  0xf0b6,
  0xec50,
  0x12e6,
  0x0b1a,
  0x05f8,
  0x0399,
  0x0aa8,
  0x08d9,
  0xf81b,
  0x0376,
  0x0220,
  0xfa3a,
  0x005f,
  0xf97c,
  0xffde,
  0x0358,
  0x0203,
  0xf787,
  0x055b,
  0x0a23,
  0xf6b4,
  0xe236,
  0x0e14,
  0xfd06,
  0xeccf,
  0x0a5b,
  0x1fb3,
  0xf232,
  0xe880,
  0x140d,
  0xe755,
  0x0000,
  0x0636,
  0xfe7e,
  0xf6c0,
  0xfb50,
  0x15fa,
  0xf9e4,
  0xf9d2,
  0x089a,
  0x0623,
  0xfbd7,
  0x0308,
  0xf900,
  0xf70c,
  0xfdd5,
  0x1822,
  0xf2cc,
  0x1371,
  0x0536,
  0xf690,
  0x07fb,
  0xed0f,
  0xfbfe,
  0xfbca,
  0xeed0,
  0xee46,
  0x0d60,
  0xf034,
  0xd480,
  0x2107,
  0xf68d,
  0xf745,
  0x057a,
  0xf591,
  0x07a5,
  0xea57,
  0x0961,
  0x1132,
  0xfd98,
  0xf9df,
  0x0f92,
  0xed28,
  0x0f1c,
  0xf1c5,
  0x031d,
  0x0396,
  0x029f,
  0xed07,
  0xf941,
  0x0bed,
  0xf85c,
  0x0328,
  0x21a3,
  0xd56e,
  0xf96f,
  0x341b,
  0xdc9e,
  0x0b36,
  0x12b7,
  0xdf04,
  0x0876,
  0x189a,
  0xecbe,
  0xde77,
  0x2ea4,
  0xdbf7,
  0xecec,
  0x2098,
  0xfb5f,
  0x050d,
  0xf56a,
  0xf7e6,
  0x0010,
  0x052b,
  0xea90,
  0x0660,
  0x07b9,
  0xf17d,
  0xff43,
  0xfff6,
  0x0562,
  0xfff9,
  0x06a7,
  0x06ea,
  0x0170,
  0xf32b,
  0xfe5f,
  0x03f2,
  0xf1e8,
  0xf86d,
  0x0104,
  0x055d,
  0x0eeb,
  0xfa8c,
  0x0621,
  0x1d00,
  0x0dd0,
  0x0fc7,
  0x0095,
  0x0620,
  0x054c,
  0x016b,
  0xf1f0,
  0xf10d,
  0xfa0b,
  0x032c,
  0x0be0,
  0xf7d6,
  0xffc4,
  0x0b70,
  0x0d6a,
  0x0740,
  0x0560,
  0xfb89,
  0xf267,
  0x0f38,
  0xfd52,
  0x059a,
  0x0eb8,
  0xf904,
  0x0076,
  0x0576,
  0xf6eb,
  0x0943,
  0xeb96,
  0x0301,
  0x03e4,
  0xf6f7,
  0x0b0f,
  0x178b,
  0xfda6,
  0x0e88,
  0xff36,
  0x0c7f,
  0xfdd6,
  0xf190,
  0xf734,
  0xfd59,
  0xfc2d,
  0xf728,
  0xe662,
  0x0b15,
  0x06c5,
  0x0856,
  0x0d0e,
  0x0bfc,
  0x16d6,
  0x1662,
  0x05d7,
  0x002d,
  0x0986,
  0x0e09,
  0xf22f,
  0xf80f,
  0xf107,
  0xf08e,
  0xf4ff,
  0xf5a2,
  0xf19f,
  0xf3e3,
  0xea86,
  0xf579,
  0x0001,
  0xf4a5,
  0x0400,
  0xf468,
  0xf417,
  0x0398,
  0xf8a1,
  0xfb52,
  0xf5dc,
  0x055a,
  0x08ab,
  0xf175,
  0xfccf,
  0x1a1a,
  0x0aa1,
  0xea87,
  0xd3cb,
  0xeb10,
  0xeaf5,
  0xf9df,
  0xebeb,
  0x0482,
  0xfed0,
  0xfbe3,
  0xf1ba,
  0xf25c,
  0xeb9d,
  0xfbd4,
  0xf965,
  0xffba,
  0x077a,
  0x04f6,
  0x027d,
  0x0b52,
  0x1f2a,
  0x1385,
  0x116e,
  0x0741,
  0xfe58,
  0xf85a,
  0xec8d,
  0xfcdf,
  0x593d,
  0x6281,
  0x4bb9,
  0xfa2e,
  0xf351,
  0xd6ba,
  0xcdec,
  0xca15,
  0xeb41,
  0x0c8f,
  0x0f5e,
  0xf9aa,
  0xd899,
  0xf8e6,
  0x086c,
  0x0e5e,
  0x0cc0,
  0xf6fa,
  0xf879,
  0xf876,
  0xfd5e,
  0xe7c4,
  0xe47e,
  0xf61b,
  0xfb3b,
  0xf4d6,
  0x0260,
  0xffb9,
  0x10a2,
  0x1623,
  0x20c0,
  0x1962,
  0x12cc,
  0xfa9f,
  0x0b29,
  0xf681,
  0xf95f,
  0x08d5,
  0x0e0e,
  0x15ce,
  0x08f8,
  0xf308,
  0xfa46,
  0xf413,
  0xf7f6,
  0x0a1e,
  0xee5b,
  0xf8d7,
  0xe618,
  0x030d,
  0x14ef,
  0xfaac,
  0xfced,
  0xf320,
  0xf507,
  0x0d93,
  0x19be,
  0x0555,
  0x0a09,
  0x02fa,
  0x0570,
  0xf5f5,
  0x04a8,
  0x2183,
  0x31b6,
  0x1a95,
  0xff4d,
  0xf05d,
  0xe9ba,
  0xdca1,
  0xe436,
  0xe9c0,
  0xf025,
  0xfd7f,
  0xef95,
  0xfeb9,
  0xeecb,
  0xea08,
  0xfa80,
  0xf810,
  0xf7e3,
  0xfddd,
  0x0ca9,
  0x1366,
  0x04a1,
  0x0ace,
  0xe77f,
  0xf1dc,
  0xf551,
  0xfae9,
  0x029b,
  0x0d12,
  0xfc0c,
  0x14a6,
  0x012b,
  0xe060,
  0x06a8,
  0x005a,
  0xedc7,
  0xe9bc,
  0xf6a3,
  0xf464,
  0xffe2,
  0xf987,
  0x021f,
  0xfd71,
  0xe9f3,
  0x066b,
  0xfe17,
  0x1090,
  0x08fd,
  0xe66e,
  0xe5e7,
  0xf2c4,
  0xf4e1,
  0xfa4d,
  0x03fe,
  0xeaa2,
  0xfc12,
  0xefbe,
  0xf21a,
  0xff60,
  0xf37f,
  0xf1ba,
  0xe0d6,
  0xeeb2,
  0x0c52,
  0x0c2c,
  0xf6ea,
  0x022a,
  0x0031,
  0x0268,
  0xfb5f,
  0xfcbb,
  0xf4ce,
  0x0784,
  0x0d47,
  0x1115,
  0x0d9e,
  0x0cb0,
  0xff8b,
  0xfbaa,
  0xe901,
  0xf207,
  0xf5bc,
  0x022c,
  0xfa20,
  0xf2e6,
  0x1055,
  0xf51d,
  0x0a3a,
  0x11b8,
  0x0535,
  0x171a,
  0x036c,
  0xe15b,
  0x0a3c,
  0x01d8,
  0x073e,
  0x009d,
  0x0eab,
  0x0432,
  0x21a9,
  0x38f9,
  0x1d1d,
  0x16da,
  0xfc51,
  0xed2a,
  0xf610,
  0xe327,
  0xf102,
  0xf1cb,
  0x11e9,
  0x0a87,
  0xf92d,
  0xf652,
  0x08e8,
  0x211d,
  0x1ab1,
  0xebc5,
  0x1f2b,
  0x1a95,
  0xcd0c,
  0x35e9,
  0x1945,
  0xb842,
  0x1392,
  0x09bb,
  0xfbfe,
  0xf638,
  0xff1f,
  0xff3d,
  0xfd1c,
  0xfeb8,
  0xfef0,
  0xf967,
  0xf7d5,
  0x0984,
  0xf21c,
  0x04fa,
  0xfd7b,
  0xe532,
  0xfa9c,
  0xf2be,
  0xef3f,
  0xf8af,
  0x074a,
  0x0f72,
  0x128f,
  0x0444,
  0x1d16,
  0xf688,
  0x02e3,
  0x1b4e,
  0x01c4,
  0x0f3a,
  0xf4f5,
  0x182b,
  0x18ae,
  0x12e1,
  0x0c00,
  0x0600,
  0x0073,
  0xfb38,
  0xe639,
  0xe5a7,
  0x0a01,
  0x10ea,
  0xf8b8,
  0x091c,
  0x0c31,
  0xf270,
  0x15b3,
  0x0372,
  0xfcaf,
  0x08af,
  0xe985,
  0xf9fc,
  0xfaae,
  0xda89,
  0xfedd,
  0xf5e5,
  0xea7b,
  0xd6c9,
  0x37fe,
  0x122e,
  0xe80f,
  0x406f,
  0x0ac6,
  0x06d0,
  0x3149,
  0x0ac9,
  0xe07d,
  0x012c,
  0x164a,
  0xe798,
  0xf20f,
  0x0919,
  0x0129,
  0xf7e0,
  0x05fd,
  0xed32,
  0xf1c1,
  0x082b,
  0xf757,
  0xeba1,
  0x0a45,
  0x03b0,
  0xf492,
  0xfc5d,
  0xd186,
  0xda03,
  0xf1db,
  0xd533,
  0xeec5,
  0xecc1,
  0xdb4f,
  0xedcf,
  0xdfeb,
  0xc7a8,
  0x19bc,
  0x0cfb,
  0xe51d,
  0x0fa3,
  0x086b,
  0xeeba,
  0x042c,
  0x078e,
  0x1279,
  0x1aa5,
  0xe343,
  0xfaee,
  0x1325,
  0xeec7,
  0x1594,
  0x138d,
  0xe778,
  0xd21b,
  0xfa22,
  0xea71,
  0xe6ec,
  0x01ba,
  0x157f,
  0xf664,
  0xea95,
  0xf086,
  0xf22f,
  0xf93f,
  0xfe92,
  0xf9e8,
  0x294f,
  0x0495,
  0xf56a,
  0x01de,
  0xf256,
  0xe161,
  0x03fc,
  0x0977,
  0x02dd,
  0x0fc3,
  0x05e4,
  0xf886,
  0x1a70,
  0xfd0f,
  0xfa87,
  0x1160,
  0x0862,
  0xdfe8,
  0x0011,
  0x1349,
  0xf022,
  0xf1dd,
  0x0074,
  0xe71e,
  0xf8f7,
  0xe51d,
  0xfa5c,
  0x07b5,
  0xf2a1,
  0xec19,
  0x03a1,
  0xf561,
  0xf031,
  0x152b,
  0x0dff,
  0xf0bb,
  0x0f49,
  0xfaa4,
  0xfe7a,
  0x198f,
  0x06b6,
  0xf527,
  0x15ba,
  0xf5b1,
  0xed07,
  0x0e17,
  0x0109,
  0xff30,
  0xf68c,
  0xff89,
  0xeddb,
  0xf1ea,
  0xfaaa,
  0xea7b,
  0xf8a7,
  0x02a1,
  0xf243,
  0x028a,
  0x0c37,
  0xfcfd,
  0xfc1d,
  0xe69f,
  0x0c10,
  0x0f9d,
  0x0eaf,
  0xf85a,
  0xfeb3,
  0xfdf9,
  0xf26a,
  0x01af,
  0x0a4e,
  0xf5cd,
  0xfaa2,
  0x0398,
  0xf2a8,
  0xf6a0,
  0xd8e0,
  0xf16d,
  0xff85,
  0x073d,
  0xf1d8,
  0xf9b7,
  0x09e7,
  0xf5c4,
  0x00e5,
  0xed5b,
  0xdba3,
  0xf567,
  0x0435,
  0xe750,
  0x0c8f,
  0x1eae,
  0x016c,
  0x0969,
  0x0511,
  0xfe3d,
  0xec6e,
  0xe7c6,
  0xeccd,
  0xf215,
  0xf1b8,
  0xda1f,
  0x1405,
  0x174c,
  0x0bde,
  0xfd01,
  0x0687,
  0xf655,
  0xef5b,
  0xf5e8,
  0x0c68,
  0x03a2,
  0x02ab,
  0x1e82,
  0xf7a5,
  0xfdf6,
  0x1527,
  0xe203,
  0xf585,
  0x0190,
  0xea41,
  0x0b98,
  0x2208,
  0x01be,
  0xd69d,
  0x3a33,
  0x08fa,
  0xda01,
  0x1928,
  0x022a,
  0xe634,
  0x0a54,
  0x0d3d,
  0x026f,
  0xeff0,
  0xfeee,
  0xf839,
  0xfd46,
  0xfa24,
  0xef7b,
  0xfed7,
  0x0c4a,
  0x13c8,
  0xf6af,
  0x04f1,
  0xfec1,
  0x0352,
  0xf65f,
  0xf930,
  0x08a7,
  0xfdf6,
  0xe661,
  0xf754,
  0x017a,
  0xf7da,
  0x09eb,
  0xf9e5,
  0xf0b7,
  0xfc12,
  0xfcd8,
  0x0615,
  0xf696,
  0xe8de,
  0xe68e,
  0xdeff,
  0xd1ef,
  0xde8d,
  0x071d,
  0x0dca,
  0x207f,
  0xfc5d,
  0x0ca8,
  0x0b49,
  0xf99e,
  0xecb7,
  0x11d9,
  0xefa4,
  0x0edb,
  0x2cc9,
  0xfe68,
  0x188e,
  0x1f9c,
  0xfdcc,
  0xf1a2,
  0xf884,
  0xfeb3,
  0xf9c0,
  0xeaf2,
  0xfd94,
  0xffec,
  0xedad,
  0x0347,
  0xfa7e,
  0xfac1,
  0x08fa,
  0x215e,
  0x0a1f,
  0xf122,
  0xfb38,
  0x1697,
  0xefe6,
  0xea1f,
  0x07c0,
  0xfbaf,
  0x0ece,
  0x077d,
  0xeeb0,
  0x0d67,
  0x0c96,
  0x0c9a,
  0x1fa0,
  0x36ee,
  0xf0d1,
  0x1af9,
  0x13b7,
  0x0b72,
  0x1e24,
  0x085a,
  0xeb24,
  0xe598,
  0xe008,
  0xf734,
  0xfa38,
  0x0830,
  0xecc1,
  0xfff7,
  0xef2c,
  0x0177,
  0x0018,
  0x0410,
  0xd78a,
  0xbdf3,
  0xd889,
  0x109e,
  0xfaaf,
  0xc0bf,
  0x1a6a,
  0xfae5,
  0xef9b,
  0x0cc3,
  0x0376,
  0x0659,
  0x0370,
  0x10b7,
  0xef50,
  0x07df,
  0xfe8a,
  0xea2b,
  0x1c73,
  0x1061,
  0xf3c2,
  0xf663,
  0x0443,
  0x1243,
  0x0127,
  0x1352,
  0xe8fc,
  0xe57e,
  0xf047,
  0xf84d,
  0xdadd,
  0xe3e2,
  0xf645,
  0xfa21,
  0xf347,
  0xfb6f,
  0xf0c3,
  0x0693,
  0x07dc,
  0xe812,
  0xf2b8,
  0xf1cd,
  0xc423,
  0xc62f,
  0xbd41,
  0xe9af,
  0xf5d2,
  0xe31d,
  0xda27,
  0xd99f,
  0xe22c,
  0xfe2f,
  0xeb2c,
  0xe990,
  0xe5c0,
  0x143b,
  0x1352,
  0x0614,
  0xf9b0,
  0x0f33,
  0xde27,
  0xe201,
  0x06ff,
  0xf9db,
  0x081d,
  0x1109,
  0xf41f,
  0x05e2,
  0x0356,
  0xfd0a,
  0xedbc,
  0xf96a,
  0xe3fa,
  0x0f5a,
  0x2b29,
  0xfbff,
  0x024c,
  0x0e6a,
  0x0b18,
  0xf5b3,
  0xfb04,
  0xf3e5,
  0xeab0,
  0xea8c,
  0x23cf,
  0x1023,
  0x0176,
  0xec99,
  0x10b4,
  0x2a4d,
  0x023e,
  0x1f99,
  0x133f,
  0x0cd2,
  0x1faa,
  0x0e4f,
  0xede2,
  0xd5ff,
  0xeec0,
  0xec74,
  0xed0e,
  0xfe6b,
  0xf741,
  0x0449,
  0x019d,
  0x00b5,
  0x0960,
  0x0c42,
  0x0dd2,
  0x0e9f,
  0x0335,
  0x045c,
  0x1a90,
  0xfe83,
  0x0922,
  0x0654,
  0x0edb,
  0xe703,
  0xfc72,
  0xea8b,
  0x1084,
  0x133e,
  0xfa97,
  0xf6ad,
  0xffb3,
  0xf8e8,
  0x02f6,
  0x0c72,
  0x1140,
  0xffea,
  0x001a,
  0x0797,
  0x0325,
  0xfa14,
  0xf488,
  0x100d,
  0xfc72,
  0x1b97,
  0xf6db,
  0x0450,
  0x2103,
  0xfb64,
  0xec64,
  0xe269,
  0xf7a4,
  0xf06b,
  0xfc78,
  0xfab2,
  0xf404,
  0xef62,
  0xe394,
  0xebe9,
  0xeea2,
  0xfe25,
  0x1730,
  0x1e55,
  0xf583,
  0x026f,
  0x18b7,
  0xf01c,
  0xe8c2,
  0x13f7,
  0xed6f,
  0x179b,
  0x1cfb,
  0x14ee,
  0x0af0,
  0x126d,
  0x0e4b,
  0xeda5,
  0xf26d,
  0xfa7c,
  0x1a08,
  0x2468,
  0xf7e7,
  0x0b40,
  0x0bb7,
  0x08fd,
  0x0e4f,
  0xf5c6,
  0xfb03,
  0x055f,
  0xf2da,
  0xea29,
  0x0552,
  0xdb77,
  0x0ba0,
  0x05f1,
  0xec17,
  0xe10f,
  0xe4f8,
  0xfa22,
  0x133a,
  0x0200,
  0xd529,
  0x1b2c,
  0xfe33,
  0xf379,
  0xf7d8,
  0x1bda,
  0x16b8,
  0xefd1,
  0x05a9,
  0x0fcf,
  0x04b6,
  0x003d,
  0xfe7d,
  0x0724,
  0x01db,
  0xe9df,
  0x10ad,
  0x071c,
  0x0f96,
  0xff7b,
  0x0283,
  0xf8a0,
  0xf78c,
  0xd198,
  0xe84d,
  0xd029,
  0xd3bc,
  0xd50b,
  0xf4bf,
  0xeb91,
  0xfe99,
  0xf8ce,
  0xefe5,
  0x076b,
  0x13ef,
  0x0c3f,
  0x08d1,
  0x0dae,
  0xf0d6,
  0xf405,
  0x07c2,
  0xfe65,
  0x044f,
  0x04cf,
  0xff21,
  0xf632,
  0xf8fb,
  0x0123,
  0x12fc,
  0xfa4c,
  0x0d1c,
  0xfdc2,
  0xe2b9,
  0xe247,
  0xe575,
  0xee25,
  0x0191,
  0xec89,
  0x0490,
  0x024d,
  0x0ed5,
  0x050e,
  0x11de,
  0x0479,
  0xf098,
  0xdac9,
  0xf4a2,
  0x03a9,
  0x00a4,
  0x0f91,
  0x1c12,
  0x2d77,
  0x24a3,
  0xf269,
  0xea16,
  0xf0ca,
  0xf8bb,
  0x0123,
  0x157c,
  0x0aca,
  0x01fe,
  0x044a,
  0xf24f,
  0x0485,
  0xfefa,
  0x00d4,
  0xfe35,
  0xe728,
  0xe62d,
  0xf1ed,
  0xde4f,
  0xf3cd,
  0x0a86,
  0x013c,
  0x169f,
  0x0e46,
  0x0f91,
  0xdb43,
  0xda82,
  0xeec5,
  0x2586,
  0x038b,
  0xedf8,
  0xddb0,
  0x053f,
  0x064b,
  0x0048,
  0xf38e,
  0xe65f,
  0x0b63,
  0xf945,
  0xea0f,
  0xf869,
  0xe6c0,
  0xd6e7,
  0x10e0,
  0x000f,
  0xfb56,
  0xfde1,
  0xfe63,
  0xfcfe,
  0xf0e3,
  0xe8d3,
  0xf7c9,
  0xc9f1,
  0xca4e,
  0xdaea,
  0xf99a,
  0xfa7d,
  0x0770,
  0x1274,
  0xfc4a,
  0x0083,
  0x0e00,
  0x05a7,
  0x0519,
  0xf6d2,
  0xdd4f,
  0xe5a5,
  0x126c,
  0x26c9,
  0x16cc,
  0x0030,
  0xf22f,
  0xf6f4,
  0x077c,
  0x1866,
  0x0d4d,
  0xfb29,
  0xf8d2,
  0x22cd,
  0xf468,
  0x0760,
  0x0205,
  0x0c3d,
  0xffa3,
  0x0ae5,
  0x06a1,
  0xfd8a,
  0xfd26,
  0x1e26,
  0x23e9,
  0x1823,
  0x024a,
  0xed93,
  0xf846,
  0xf586,
  0x01e7,
  0xf9b0,
  0xf258,
  0xf8fc,
  0x0847,
  0x0f10,
  0xf7f1,
  0x18b2,
  0x0be2,
  0x0384,
  0x17c2,
  0x1d00,
  0x146d,
  0x04b4,
  0x1177,
  0x057e,
  0xf9b4,
  0x0c90,
  0x1838,
  0xfdd4,
  0xef8b,
  0x03ad,
  0xe5ea,
  0xe974,
  0xea34,
  0x14a2,
  0x0ff4,
  0x057f,
  0x0b69,
  0x066c,
  0x0817,
  0xfe36,
  0xfd0f,
  0xf8da,
  0xf59c,
  0xfa13,
  0x02f4,
  0xfc46,
  0xf276,
  0x122b,
  0x06b4,
  0xf6ce,
  0xf9ec,
  0x006d,
  0x0d90,
  0x1b9d,
  0x0460,
  0xe688,
  0x0954,
  0xefc3,
  0x1f43,
  0xf250,
  0xf535,
  0xf46e,
  0xf7c2,
  0xfa02,
  0x07c0,
  0x1138,
  0x0b93,
  0xf84f,
  0x0272,
  0x12fa,
  0xff4d,
  0xf5aa,
  0xe5d3,
  0x1fdf,
  0x0de9,
  0x1108,
  0xfec3,
  0xfc90,
  0xfa26,
  0x0cf1,
  0x28fc,
  0x18ab,
  0xf6b6,
  0xfea7,
  0x0a03,
  0xfda5,
  0x0a68,
  0xf720,
  0xfe63,
  0x0eb9,
  0x0682,
  0x0057,
  0x105d,
  0x0f4a,
  0xe232,
  0xf528,
  0x0a83,
  0xfd07,
  0x089a,
  0xf6bb,
  0xf8e8,
  0xeb09,
  0xf080,
  0xd40b,
  0xf5af,
  0xf086,
  0xea78,
  0xf30e,
  0xeee1,
  0xfa50,
  0x0f29,
  0x04f1,
  0xf40c,
  0xf863,
  0xe819,
  0xfc79,
  0xfaa6,
  0xfc61,
  0xf75a,
  0x0da0,
  0xf687,
  0xe6c0,
  0xdc27,
  0xd293,
  0x1e82,
  0x0ea4,
  0xecc3,
  0xf6a8,
  0xe786,
  0xede6,
  0x0a6d,
  0x2102,
  0xfdab,
  0x0882,
  0x0609,
  0x03a6,
  0x0102,
  0x0167,
  0xfb7e,
  0xf0e3,
  0xe301,
  0xec48,
  0xf2d7,
  0xff88,
  0xf809,
  0xe7fa,
  0xeebb,
  0xea3b,
  0x0829,
  0xeb17,
  0xf350,
  0xf0ff,
  0xfd00,
  0x0c41,
  0x0040,
  0xfc9b,
  0x0d57,
  0x04c2,
  0x11ab,
  0x035b,
  0xfa6d,
  0xfc74,
  0x0080,
  0x0c30,
  0x0769,
  0xf20e,
  0x05ba,
  0x01a4,
  0x0de9,
  0xfcfb,
  0x0229,
  0xfa55,
  0xfb41,
  0xf78d,
  0xf51f,
  0xe8d2,
  0xe8c0,
  0xfb44,
  0x0ae2,
  0x04b1,
  0x097a,
  0xfd54,
  0x0b12,
  0x02c2,
  0xfeea,
  0xf7d4,
  0x06bd,
  0xfe7a,
  0xfb84,
  0xfbf4,
  0xd767,
  0x0378,
  0x085d,
  0xf388,
  0xda92,
  0xfd1e,
  0xed32,
  0xf594,
  0xed97,
  0xca62,
  0xd4b2,
  0xda80,
  0x0175,
  0xf544,
  0xf22b,
  0xfab5,
  0xf74c,
  0xfe15,
  0x0779,
  0xf781,
  0xdfda,
  0xfbbf,
  0xf7cf,
  0xf1e7,
  0xfeeb,
  0x0c27,
  0x1201,
  0x08c5,
  0x1620,
  0x0cf1,
  0xee0d,
  0x0a39,
  0x09d5,
  0xfce9,
  0xf91c,
  0xfdfb,
  0xfb30,
  0x123c,
  0xf79e,
  0x086e,
  0x2c56,
  0x1778,
  0x043c,
  0x0403,
  0x0be1,
  0x05f9,
  0xfbae,
  0x00e2,
  0xeb63,
  0xf46d,
  0xf61a,
  0x0e63,
  0x06f9,
  0xf045,
  0xf89d,
  0xf60f,
  0x09e1,
  0x00e5,
  0xf1bd,
  0xff1b,
  0x01e2,
  0xf2af,
  0xf7db,
  0xf8a2,
  0x0d02,
  0x1404,
  0x0809,
  0x1958,
  0x180b,
  0xc199,
  0xcf08,
  0xeb23,
  0xd840,
  0xe99e,
  0xe622,
  0x3551,
  0x3375,
  0x3739,
  0xf8f7,
  0x0234,
  0xf32d,
  0x1c65,
  0x2875,
  0x21f6,
  0x1852,
  0x2ba2,
  0x285c,
  0xfeb0,
  0x0d19,
  0x289d,
  0xf9d0,
  0xfcee,
  0xf884,
  0xef4e,
  0x0a09,
  0x005e,
  0x0be9,
  0x0db3,
  0x0a4d,
  0xd120,
  0xe0f4,
  0xef81,
  0x0579,
  0xdfb4,
  0xc5f7,
  0xf9e6,
  0xf960,
  0x0997,
  0x0379,
  0x09ce,
  0x04d6,
  0xfc5e,
  0xf2d4,
  0x0264,
  0x1655,
  0x1b9b,
  0x17c1,
  0x0100,
  0x048a,
  0xef57,
  0xec4f,
  0xf390,
  0xf1b4,
  0xff3a,
  0xf479,
  0x016b,
  0x0c6f,
  0xf3bf,
  0xe4ba,
  0x07da,
  0xf576,
  0xea1c,
  0xf9f4,
  0xf5fd,
  0xf5fb,
  0xe75f,
  0xf005,
  0xf773,
  0x253b,
  0x4220,
  0x24e1,
  0x044c,
  0xf486,
  0xff9a,
  0xfd4e,
  0xf3d8,
  0x002a,
  0xf254,
  0xf360,
  0xffd4,
  0xf15d,
  0xe1e0,
  0x072f,
  0xf079,
  0xf084,
  0xe456,
  0x13d5,
  0x0569,
  0xf15d,
  0x1010,
  0x2893,
  0x2201,
  0xde11,
  0xf7d4,
  0x09e3,
  0xe634,
  0xd11e,
  0xeeb4,
  0x1f9e,
  0x0e98,
  0x0876,
  0xea09,
  0xe92d,
  0x012f,
  0xe1f6,
  0xe6cd,
  0xd29c,
  0xfd92,
  0x03e8,
  0x0cd2,
  0x00f7,
  0x0190,
  0xef6d,
  0xfb91,
  0xe87a,
  0xdc41,
  0xf545,
  0x110f,
  0x07fe,
  0xe36e,
  0xe2cd,
  0xfdd7,
  0xecd1,
  0xe7e8,
  0xfcbf,
  0x0431,
  0xe075,
  0xf914,
  0xfb24,
  0x0244,
  0xee38,
  0x19bd,
  0x089b,
  0xf86a,
  0x1037,
  0x1218,
  0x0c54,
  0xf73a,
  0xf245,
  0xfedd,
  0xd908,
  0xe3e8,
  0xe039,
  0x07b8,
  0x0487,
  0x0d14,
  0x008a,
  0xfbdc,
  0x00bd,
  0xfe94,
  0x0bda,
  0xde81,
  0x070f,
  0x1054,
  0xfdd8,
  0x08ea,
  0x221e,
  0x2725,
  0x1536,
  0x0b85,
  0x1991,
  0x0305,
  0xfe62,
  0x006e,
  0xdc08,
  0xd9be,
  0xddd4,
  0x0619,
  0xffd9,
  0xed25,
  0xfd70,
  0xea54,
  0xf4bd,
  0x1507,
  0xed6e,
  0xe9fa,
  0x1071,
  0xfdf0,
  0x1474,
  0x03f1,
  0x0bd5,
  0xfe26,
  0x186b,
  0x1e99,
  0x1161,
  0x1b54,
  0x0d67,
  0x0f4f,
  0x084b,
  0x119b,
  0x0ce0,
  0xf9fd,
  0x0ba1,
  0xe9a5,
  0xfea2,
  0x0bd3,
  0xf40e,
  0x0d25,
  0x0ad9,
  0xfca3,
  0xf3f7,
  0xe675,
  0xde83,
  0xf7bb,
  0xf52b,
  0x0527,
  0xfa61,
  0xff97,
  0x06ce,
  0x1073,
  0x0911,
  0x0204,
  0x122a,
  0xf67c,
  0xfd44,
  0x0a56,
  0x089f,
  0x0b4a,
  0xec52,
  0xfdf5,
  0xfae9,
  0x131a,
  0x0d4f,
  0xef0f,
  0x0536,
  0xfba0,
  0xddfe,
  0xf4ff,
  0xc8bd,
  0xcbac,
  0xfa71,
  0xf180,
  0xe806,
  0xfc3e,
  0x031d,
  0x13a4,
  0x1524,
  0x1a00,
  0xfff1,
  0x1eb2,
  0x1e95,
  0x05dd,
  0xf205,
  0xf69f,
  0xfbd7,
  0xf68b,
  0xf91c,
  0xec2a,
  0x0977,
  0xebbe,
  0xeb5a,
  0xddb0,
  0xf365,
  0x07ef,
  0xda8b,
  0xdd42,
  0xd520,
  0xebfb,
  0xdb1f,
  0xe21e,
  0xe51e,
  0xf880,
  0xf319,
  0x0d4e,
  0xe55f,
  0xd94c,
  0xf15c,
  0xe059,
  0xe939,
  0xe8d8,
  0xdfb5,
  0x07d7,
  0xe5a6,
  0xd6e9,
  0xc61c,
  0x2355,
  0xeb07,
  0xe6c1,
  0xfc9c,
  0xfd35,
  0xf72d,
  0xf62b,
  0xf031,
  0xfccc,
  0x0f5e,
  0xf2d7,
  0xf045,
  0xe883,
  0xe481,
  0xdfde,
  0xb34e,
  0x967f,
  0xb18f,
  0xdaf2,
  0xca1a,
  0xd8ed,
  0x2502,
  0x2d3e,
  0x1e66,
  0x02d0,
  0xfcd7,
  0x0380,
  0xf0fa,
  0xd8d5,
  0xf078,
  0x01ce,
  0x09aa,
  0x10ef,
  0x0345,
  0x0273,
  0xe0f3,
  0x03e1,
  0x085d,
  0xe607,
  0x0a0a,
  0xf29d,
  0xfc0d,
  0xffdf,
  0xe9a8,
  0xe7ed,
  0xeaf6,
  0xfc6c,
  0xf116,
  0x091b,
  0x02b2,
  0x09c1,
  0x052f,
  0xf694,
  0xe5b9,
  0x0a87,
  0x0bb5,
  0x051b,
  0x105a,
  0x0491,
  0x1315,
  0x0dab,
  0x10a8,
  0xfa33,
  0xec2e,
  0xf69b,
  0xe09b,
  0x04ab,
  0x0b8f,
  0xf4fa,
  0xe55e,
  0xf983,
  0xf0f9,
  0xfdc5,
  0x00b1,
  0x0285,
  0x03a6,
  0xfd31,
  0xfd10,
  0xf2b7,
  0xf808,
  0xfc6b,
  0x054d,
  0x0f5b,
  0x1407,
  0xe194,
  0xdb41,
  0xfa5c,
  0xeb22,
  0xed51,
  0xdbbd,
  0xe345,
  0xf67d,
  0xd53a,
  0xd847,
  0xef3e,
  0xf463,
  0xf1c2,
  0xfdf3,
  0xfcb5,
  0x0880,
  0x08d2,
  0x02b0,
  0x2b09,
  0x13b0,
  0xfaad,
  0x1763,
  0xf94c,
  0xcfff,
  0x0c93,
  0xf6ff,
  0xdcbb,
  0xee5c,
  0xeae0,
  0x0532,
  0x0736,
  0xff65,
  0xef25,
  0x1992,
  0xf200,
  0x0a4f,
  0x088e,
  0x0835,
  0x24e2,
  0xe974,
  0xe008,
  0xe035,
  0x0eb1,
  0xf1af,
  0xed83,
  0xd964,
  0xebc5,
  0x0251,
  0xfcdf,
  0xf7ae,
  0xf16d,
  0xffa1,
  0xe68c,
  0x0c2f,
  0x015c,
  0xeb7a,
  0x0a7f,
  0xf60c,
  0xfe9c,
  0xee5f,
  0x16fe,
  0x141e,
  0xfdf7,
  0xff7a,
  0x0822,
  0x0e94,
  0x081d,
  0xfad0,
  0xf28d,
  0x1d2f,
  0x06f9,
  0xeb0f,
  0x023c,
  0x0a8f,
  0x057b,
  0x1a54,
  0xf94d,
  0xf7b9,
  0x1fd8,
  0x0fb1,
  0xeeb9,
  0x02e9,
  0x07f3,
  0x04b4,
  0x0ca2,
  0xfbfa,
  0xef5b,
  0x007b,
  0xf76b,
  0xf352,
  0x073f,
  0xfff0,
  0xf76b,
  0xe656,
  0xd376,
  0xee0d,
  0x0a5d,
  0x0493,
  0x0b7a,
  0xdef4,
  0x1452,
  0x2ef4,
  0x1559,
  0x13b6,
  0x2b61,
  0xc2f0,
  0xe51e,
  0x2319,
  0xff07,
  0xe922,
  0xd4d8,
  0x020d,
  0xd5df,
  0xea0e,
  0xfda4,
  0x0e6d,
  0x05cc,
  0xfc88,
  0xff99,
  0x060c,
  0xf868,
  0xe10a,
  0xf150,
  0xfe76,
  0xf831,
  0xeb38,
  0x0919,
  0x0787,
  0x11db,
  0xf15f,
  0xed1d,
  0xf35a,
  0xf873,
  0xfe80,
  0xffda,
  0x28e7,
  0xfe75,
  0xbed0,
  0x31e2,
  0x2108,
  0xd833,
  0x2d0b,
  0x1dfc,
  0xf907,
  0xed15,
  0x2fb9,
  0xee62,
  0xebb0,
  0xfc11,
  0x2ade,
  0xdcc9,
  0xf13e,
  0xda3a,
  0x0224,
  0x0425,
  0x204f,
  0xeb88,
  0x1693,
  0x1f7d,
  0xfc5e,
  0xf55e,
  0xe6b9,
  0xf136,
  0xfa63,
  0x0cf0,
  0xe30a,
  0xec56,
  0x08f0,
  0xec7a,
  0xe6d6,
  0xf406,
  0x00cb,
  0xaf02,
  0xc6b5,
  0x15d2,
  0xf4fc,
  0xeaf8,
  0x3c8e,
  0x2908,
  0x0631,
  0x14f8,
  0xfee8,
  0xb8fa,
  0x23e3,
  0x3a48,
  0xe417,
  0x331a,
  0x3c83,
  0xe98b,
  0xf7b1,
  0xf9e4,
  0x0aab,
  0xf199,
  0x2805,
  0x0b7d,
  0xf6f8,
  0x0ea1,
  0xf784,
  0xd4a2,
  0x1620,
  0x0787,
  0xffad,
  0xff67,
  0x2033,
  0x00d3,
  0xd98f,
  0x11b8,
  0x06b0,
  0xbe89,
  0xbc1b,
  0x2638,
  0x04c7,
  0xb9ab,
  0x32ad,
  0x2149,
  0xe38f,
  0x126f,
  0xf2ad,
  0xe92f,
  0x454c,
  0xdde1,
  0xd645,
  0x32e7,
  0xdffe,
  0xa334,
  0x07e1,
  0x05be,
  0x190f,
  0xeda2,
  0xf89e,
  0xf608,
  0x0f00,
  0x0d1e,
  0xfb56,
  0xec36,
  0x0418,
  0x0c9d,
  0x06be,
  0xf398,
  0xf498,
  0x07d9,
  0xf183,
  0xfd29,
  0xf445,
  0xf075,
  0x0747,
  0x0a5a,
  0x1c92,
  0x1c5e,
  0xfff8,
  0xee3c,
  0xfb71,
  0xfe04,
  0xf992,
  0xfad4,
  0x05ee,
  0xf06a,
  0xd836,
  0x0953,
  0xf4b0,
  0xf1f6,
  0xfc3e,
  0xe866,
  0xfe91,
  0xd832,
  0x182f,
  0x0ef5,
  0x0cee,
  0xeece,
  0xe9e1,
  0xf888,
  0x043c,
  0xfbf0,
  0xf1ee,
  0xdf5c,
  0x076e,
  0x00e6,
  0xdc82,
  0x15d4,
  0x23cb,
  0xefb0,
  0x107a,
  0x2934,
  0xeef2,
  0xe0d5,
  0x298f,
  0x0ff2,
  0xbacc,
  0xe2d4,
  0xf560,
  0xf78c,
  0x0039,
  0xf390,
  0xf60e,
  0x0d5f,
  0x0fdd,
  0x051d,
  0x1d18,
  0x00f3,
  0xefa0,
  0x0aeb,
  0xf7e6,
  0xfba4,
  0x12a9,
  0x0908,
  0x098c,
  0x068e,
  0xf7ff,
  0xe063,
  0xfbc6,
  0xfcbf,
  0x0b1e,
  0xf281,
  0x0731,
  0x06b2,
  0xbe14,
  0xeb71,
  0xfa85,
  0x0968,
  0x117a,
  0x14b6,
  0xcf00,
  0xe782,
  0x0beb,
  0xe209,
  0x06d2,
  0x13e5,
  0xdf8e,
  0xddf9,
  0x1a4f,
  0xf7a1,
  0xda93,
  0x28b2,
  0x0024,
  0xf00c,
  0xf87b,
  0x0bd7,
  0xe66b,
  0xf291,
  0x0ced,
  0x054e,
  0xfa90,
  0x0dbb,
  0xffda,
  0xf081,
  0x00ed,
  0xe3b8,
  0xd98e,
  0x00db,
  0xfd30,
  0xf284,
  0xe3be,
  0xfeab,
  0xed00,
  0x0b6c,
  0x2c56,
  0xef3e,
  0x0e14,
  0x0fe3,
  0xfa70,
  0x0c1c,
  0x1dfa,
  0xf988,
  0xe370,
  0x089d,
  0xfc18,
  0x0a0a,
  0xf2ab,
  0x0648,
  0x0851,
  0x0d62,
  0xd854,
  0x1af5,
  0x1d0f,
  0xccf4,
  0x244f,
  0x2c7f,
  0xed96,
  0x01c2,
  0xf97a,
  0x152a,
  0x015b,
  0xedbb,
  0xf0d5,
  0x008f,
  0xc2c6,
  0x06c8,
  0xf5a3,
  0x12d9,
  0xfbc3,
  0x0dac,
  0x06d1,
  0x0838,
  0x0285,
  0x0e6a,
  0x0e5d,
  0x066f,
  0x00fe,
  0xea0f,
  0x1fec,
  0x05f0,
  0x038f,
  0x1052,
  0x1130,
  0x04c5,
  0xe034,
  0xece7,
  0xf385,
  0x0b24,
  0x13dc,
  0x0e72,
  0x02c6,
  0x1f14,
  0x0ba6,
  0xf77c,
  0xfee5,
  0xe905,
  0x15ee,
  0x0bad,
  0xf254,
  0x01ea,
  0x01c8,
  0xfd0e,
  0xeb41,
  0xce3c,
  0xf845,
  0x162f,
  0x069b,
  0x18c0,
  0x00ea,
  0x0573,
  0x0110,
  0xf8b3,
  0xfb28,
  0x0663,
  0xf542,
  0xfec1,
  0xf75a,
  0xefaa,
  0x096e,
  0x1d6e,
  0xedf9,
  0xdce2,
  0xf1cb,
  0xfc02,
  0x0bd8,
  0xee8b,
  0x0974,
  0x2b41,
  0x1fbe,
  0x1ceb,
  0x15d9,
  0xf124,
  0x1654,
  0x174a,
  0x0898,
  0x0723,
  0x071f,
  0x0bd6,
  0xe129,
  0xdc33,
  0xfb84,
  0x04e6,
  0x0972,
  0xfde3,
  0xf436,
  0x0158,
  0x1172,
  0xd4b1,
  0xd32c,
  0xebca,
  0x0adf,
  0x0855,
  0x09e8,
  0x0323,
  0x0ae9,
  0x05bf,
  0xee60,
  0xd53d,
  0xe66d,
  0xf2de,
  0xe6fa,
  0xef15,
  0xf6a8,
  0xe35d,
  0xff3e,
  0xd817,
  0xe6e0,
  0x0081,
  0xe6e2,
  0xed00,
  0xea5e,
  0xf154,
  0xec1e,
  0xfbcc,
  0xf724,
  0xe2ae,
  0xfed1,
  0x0c25,
  0xf3e6,
  0x04e8,
  0xfcdc,
  0xfb66,
  0x02d5,
  0xc4e6,
  0xc03a,
  0xce0a,
  0x4059,
  0x2ac9,
  0x3181,
  0x620e,
  0x5927,
  0x69a5,
  0x25a6,
  0x0d39,
  0x042a,
  0x2ae8,
  0x2aa4,
  0x1b73,
  0xfefb,
  0x1b91,
  0x1715,
  0xf076,
  0xf916,
  0xe4ac,
  0xf96c,
  0xf61f,
  0xf466,
  0xf469,
  0x0b75,
  0x03a8,
  0xebb5,
  0xe0ed,
  0xe215,
  0x0403,
  0x0e78,
  0xfa5b,
  0x0267,
  0x22dc,
  0x1d21,
  0xfda7,
  0x0a97,
  0xf2f1,
  0xff92,
  0x2b6e,
  0x1057,
  0x06c5,
  0x096c,
  0x0dce,
  0xf88a,
  0xf69c,
  0xf465,
  0xf6ba,
  0xf06f,
  0x08bb,
  0x0800,
  0xf943,
  0xf265,
  0xf966,
  0xea5f,
  0xda4d,
  0x187b,
  0x1578,
  0x1a27,
  0x03dd,
  0x27dd,
  0x2cba,
  0xdfa1,
  0xd372,
  0xdbd9,
  0x0cac,
  0xf7eb,
  0xf73d,
  0x155b,
  0x0cc9,
  0x1fdb,
  0xdf84,
  0xd0fb,
  0xe9b4,
  0xf7a8,
  0xf5ae,
  0xea7d,
  0xf3d4,
  0x00bd,
  0x00bb,
  0x0b7c,
  0xddd3,
  0xdb08,
  0xfc59,
  0x0eb4,
  0xeb41,
  0x107c,
  0x2b07,
  0x278d,
  0xf54f,
  0xeb8c,
  0xe0be,
  0xe48b,
  0xe3f9,
  0xe68d,
  0xfab0,
  0xf58e,
  0xfd71,
  0x0070,
  0xe251,
  0xe147,
  0x081c,
  0xe940,
  0xf0c3,
  0xfc9e,
  0x09f2,
  0x2993,
  0x108b,
  0x1990,
  0x10c8,
  0xfce6,
  0xf08f,
  0x0184,
  0xe8a3,
  0xe5ff,
  0xfadc,
  0xf53c,
  0xef2c,
  0xe808,
  0x0a0c,
  0xfbac,
  0xfc3d,
  0x003d,
  0xee62,
  0x0594,
  0xfc95,
  0xfc61,
  0xea0c,
  0x1315,
  0x20c1,
  0x126d,
  0x0e15,
  0x2142,
  0x30ab,
  0x0233,
  0xec1c,
  0xfafc,
  0xfb3b,
  0xe812,
  0xf778,
  0x1309,
  0xf838,
  0x004d,
  0x0336,
  0xee03,
  0xf1a2,
  0x0620,
  0xe11e,
  0xf58b,
  0x043d,
  0x1779,
  0x0701,
  0x0883,
  0xff0e,
  0x0154,
  0x090f,
  0x02ea,
  0xf6bb,
  0xf4d3,
  0xf388,
  0xf37a,
  0xfb6d,
  0xfbd3,
  0xe23b,
  0xfc6b,
  0x1298,
  0x0b35,
  0x1c43,
  0x32a2,
  0x14c0,
  0xe0f2,
  0xfa1c,
  0xe635,
  0x021e,
  0x1872,
  0x037e,
  0xf3f6,
  0xf68b,
  0xe134,
  0x01d9,
  0x0b57,
  0x041e,
  0x12d9,
  0xf742,
  0xfbca,
  0x1f8c,
  0xf1be,
  0xf268,
  0xf960,
  0xda7f,
  0xe8fc,
  0x01f5,
  0xf36e,
  0xfb0d,
  0xe643,
  0xf13c,
  0x0fe8,
  0xde57,
  0xe882,
  0xfa10,
  0xf4d3,
  0xe8ed,
  0xf774,
  0xee2b,
  0x03d3,
  0x0221,
  0x0939,
  0x08b3,
  0x06b1,
  0x0592,
  0xfac1,
  0x004d,
  0x15f5,
  0x0359,
  0x0cd9,
  0xeb5f,
  0xfd6c,
  0xed3e,
  0x117a,
  0x1d83,
  0xf145,
  0xe262,
  0xee5a,
  0xf914,
  0xd7aa,
  0xec17,
  0xdb1a,
  0x13bf,
  0x08ee,
  0x05dd,
  0x005a,
  0xf3a4,
  0xfa77,
  0xeeec,
  0xf181,
  0xea0d,
  0x0832,
  0xf13d,
  0xdb9a,
  0xfd64,
  0xe74c,
  0xf081,
  0x097b,
  0x11fa,
  0x15ac,
  0x1407,
  0x1651,
  0x1695,
  0x07d7,
  0x1c4e,
  0x1a82,
  0xeae5,
  0xe555,
  0x00b8,
  0xd3bd,
  0xfdbe,
  0xf510,
  0x0613,
  0xfa03,
  0x0066,
  0x0ffb,
  0xffd2,
  0x0bbc,
  0x17bd,
  0x1b14,
  0x0708,
  0x066e,
  0x0e8a,
  0x0e92,
  0xf6a0,
  0x1472,
  0x089a,
  0x1874,
  0x2a1f,
  0x1d81,
  0xfed0,
  0xff17,
  0xf8ad,
  0xed35,
  0x01e5,
  0x0588,
  0xf68e,
  0xfb56,
  0x0a83,
  0xf9cc,
  0x0674,
  0x14a3,
  0xd9bf,
  0xc4f4,
  0xdc86,
  0xd97f,
  0xd42b,
  0xdb7b,
  0xea76,
  0xe5c5,
  0xf786,
  0xeb69,
  0xf461,
  0xee6f,
  0xc3cd,
  0xec18,
  0xea84,
  0xe8df,
  0xffa5,
  0xf969,
  0x0c44,
  0xfe8a,
  0x07f0,
  0x0fa5,
  0xfee3,
  0xe607,
  0x047b,
  0xea15,
  0x0b58,
  0xd0d9,
  0xd4f7,
  0xed95,
  0x05ef,
  0x1397,
  0x011c,
  0xf673,
  0xf6c9,
  0xe109,
  0xeffd,
  0xf32c,
  0xf769,
  0xfe9b,
  0xf254,
  0x006c,
  0xf755,
  0xfeb1,
  0x0ba0,
  0x02d1,
  0x18fa,
  0x0957,
  0x14de,
  0xffb1,
  0xfd0b,
  0x1209,
  0x0197,
  0x05a7,
  0xf564,
  0xebcf,
  0xe98a,
  0xf6c4,
  0x00cc,
  0xef11,
  0xf27a,
  0xf4b8,
  0xffc1,
  0x0d99,
  0x0291,
  0x037b,
  0x00d6,
  0xfecb,
  0xff79,
  0x0b97,
  0x096c,
  0x0882,
  0x0210,
  0x0d80,
  0x10d6,
  0x060d,
  0x0d0e,
  0x1305,
  0x0979,
  0x0445,
  0x1321,
  0xf6ab,
  0xeff9,
  0xdf2c,
  0xfe76,
  0xe47c,
  0xe676,
  0xf96f,
  0x0f68,
  0x0127,
  0xec47,
  0xed82,
  0x02e5,
  0x1411,
  0x1153,
  0x1aa0,
  0x194b,
  0x1028,
  0x0e50,
  0xdde2,
  0xf4b5,
  0x0f66,
  0x15b9,
  0x123e,
  0x0f0d,
  0xdc57,
  0xf3f0,
  0xf8e4,
  0x04f6,
  0x1244,
  0x01e7,
  0xf2fb,
  0x0014,
  0xe2f2,
  0xec56,
  0xfc94,
  0xde65,
  0xfc88,
  0xf7dc,
  0xf42a,
  0xeab9,
  0xf184,
  0x05bf,
  0xf563,
  0x01c7,
  0x15c2,
  0xdfef,
  0xe03d,
  0xeb66,
  0xd5f1,
  0xdf60,
  0xe66e,
  0xf11e,
  0xed9b,
  0x1069,
  0x004e,
  0xf45a,
  0xf216,
  0x0d83,
  0x097e,
  0x17cc,
  0x159b,
  0xffae,
  0x182b,
  0x0d88,
  0xf81d,
  0xf81a,
  0x2585,
  0x049b,
  0x00d3,
  0x1b0a,
  0xf1bb,
  0xf68d,
  0xe132,
  0xf9f7,
  0x06bf,
  0xcf21,
  0xdab1,
  0xfd76,
  0x05c6,
  0xfcf6,
  0xf6d4,
  0xfb99,
  0xfedb,
  0x0137,
  0x02d2,
  0xfca8,
  0xff3d,
  0x04b4,
  0xf86a,
  0x0024,
  0x1a72,
  0xf463,
  0xe4f6,
  0xefde,
  0xdf93,
  0xfc3d,
  0xd715,
  0xd90e,
  0x312f,
  0xfb10,
  0x09c3,
  0x0466,
  0xfef5,
  0xfefd,
  0x0677,
  0x0fec,
  0x01a8,
  0xf929,
  0x024b,
  0x2f9e,
  0xfe3e,
  0xf401,
  0x0bb0,
  0xe7c4,
  0xe67a,
  0xfb28,
  0xf812,
  0xf320,
  0x1096,
  0x0e09,
  0xff7d,
  0x0a33,
  0xe39c,
  0x14ca,
  0x1e96,
  0xe016,
  0x17ce,
  0x1d83,
  0x0078,
  0xfccf,
  0x0e29,
  0x09cc,
  0xfa15,
  0xfa3f,
  0x0843,
  0xf9ad,
  0xce06,
  0xf34a,
  0xfc95,
  0xfce7,
  0xfba5,
  0xe7de,
  0xff70,
  0x0766,
  0x0f07,
  0xe989,
  0xe72f,
  0xe6a3,
  0xe5d1,
  0xed72,
  0xf3f8,
  0x0927,
  0x2063,
  0xf718,
  0xfc55,
  0x05f2,
  0x0724,
  0x0ba7,
  0xed5b,
  0xf8b4,
  0xf80a,
  0xda61,
  0x0f4e,
  0x270c,
  0xfa83,
  0x17e2,
  0x355c,
  0xf5e2,
  0x05a2,
  0x130a,
  0xe76c,
  0x0b45,
  0x26de,
  0x198e,
  0x1aa0,
  0x177c,
  0xeb87,
  0xf8cb,
  0xf943,
  0xe853,
  0x009d,
  0x0354,
  0xe496,
  0x0b68,
  0x002b,
  0x017a,
  0xf4f3,
  0x1cd7,
  0x0b38,
  0xe6f7,
  0xf187,
  0xe268,
  0x01a5,
  0xe11c,
  0xe3f5,
  0x0962,
  0xee8b,
  0x0a20,
  0xf5fb,
  0x1898,
  0xfbf3,
  0x0e17,
  0x1e26,
  0xfb68,
  0x264f,
  0x1722,
  0xe64a,
  0x3085,
  0x2503,
  0xe65c,
  0x2360,
  0x1b56,
  0xc452,
  0x2be0,
  0x1349,
  0xc7ce,
  0x2203,
  0x14ef,
  0xee2e,
  0xff62,
  0xf75f,
  0xd993,
  0xe937,
  0xe0f3,
  0xe6c8,
  0xfb10,
  0xf347,
  0xfc73,
  0x1353,
  0x182e,
  0xdd20,
  0x26af,
  0x1532,
  0xf4e1,
  0x12aa,
  0xffe4,
  0xf730,
  0x002d,
  0xefae,
  0xca6d,
  0xe0ba,
  0xf16f,
  0x07c8,
  0xeb27,
  0x0656,
  0x066e,
  0xdd38,
  0x09a4,
  0xfe6c,
  0x0135,
  0x16be,
  0x0a49,
  0xfda4,
  0xea78,
  0xd8d3,
  0x00c4,
  0xed2e,
  0xec16,
  0xf129,
  0xf198,
  0xf4e4,
  0x030a,
  0xfb48,
  0xf589,
  0xf325,
  0xf47d,
  0xdf5f,
  0xedc1,
  0xda89,
  0x1197,
  0x0a12,
  0x1ed9,
  0xf899,
  0x14db,
  0x0a89,
  0xdfa3,
  0x25c6,
  0x1a2a,
  0xdf2d,
  0xebdc,
  0x00be,
  0xf3ca,
  0x08a4,
  0x1081,
  0x0ac0,
  0x0a1c,
  0x0c10,
  0x0e73,
  0x2c92,
  0x1f18,
  0xf97a,
  0x0935,
  0x0f48,
  0xca7d,
  0xe63d,
  0xe319,
  0xdc85,
  0x0288,
  0xff3e,
  0xffa5,
  0xfc3b,
  0xf73a,
  0xda7b,
  0xe04d,
  0xf2fe,
  0x045a,
  0xf9ac,
  0xfc7d,
  0xeb9c,
  0xfd93,
  0xf922,
  0xea2c,
  0x0774,
  0xf68e,
  0x0d30,
  0x024c,
  0xd60f,
  0xe581,
  0xf1fc,
  0xe872,
  0xf54a,
  0xe74c,
  0xd15f,
  0xe9c2,
  0x0da2,
  0x0131,
  0x04c6,
  0xfcc6,
  0x0b7e,
  0xea2a,
  0x0d4d,
  0x17d0,
  0x1666,
  0x2965,
  0x0335,
  0xe76b,
  0x03a7,
  0xfbb6,
  0xd2be,
  0xf823,
  0xf266,
  0xde7e,
  0xefc8,
  0xf6b4,
  0x0598,
  0xd26b,
  0xf9ee,
  0x0a5b,
  0xf92c,
  0x1d7e,
  0x0f08,
  0x2026,
  0x11da,
  0xf15e,
  0x068b,
  0xd9ec,
  0x0fbf,
  0xe4e8,
  0xdeda,
  0x1260,
  0x210e,
  0x28e3,
  0xfd5d,
  0x05f9,
  0x2113,
  0xe873,
  0xfb23,
  0xf2e6,
  0x0aff,
  0x1407,
  0x0a76,
  0xf976,
  0xf68f,
  0xf2ef,
  0xe688,
  0x0292,
  0x05d0,
  0xf003,
  0xf594,
  0x01b0,
  0xfc33,
  0x0201,
  0x03f1,
  0xfc37,
  0x0432,
  0x0d30,
  0x065d,
  0xf508,
  0xe938,
  0xfd62,
  0xf6b0,
  0xf1ca,
  0xf7d5,
  0xfc8d,
  0x0321,
  0xff99,
  0x01f8,
  0xf25a,
  0xfe1a,
  0xfd2b,
  0x133c,
  0xec3d,
  0x0588,
  0x1402,
  0x0fbe,
  0xe310,
  0xf3ff,
  0xef51,
  0xfbb0,
  0xf97c,
  0xefd3,
  0x0175,
  0x0b00,
  0x06e8,
  0xf5dd,
  0xfe8f,
  0xf126,
  0x101d,
  0x144a,
  0x08bd,
  0x15bf,
  0x2231,
  0x0f57,
  0xf93d,
  0xede6,
  0xfcec,
  0xe74d,
  0x04aa,
  0xe585,
  0x00a6,
  0x02ef,
  0x08e7,
  0xee4c,
  0xf84d,
  0xde0d,
  0x1485,
  0x21a5,
  0x0c34,
  0x0afe,
  0x1eb2,
  0x17c5,
  0xe509,
  0xd8c5,
  0xeab0,
  0xe72a,
  0xf473,
  0xff5d,
  0xf322,
  0xffaf,
  0x0104,
  0x07ab,
  0xf32e,
  0x0ba2,
  0xfeb5,
  0x203a,
  0x15ee,
  0x12da,
  0x2807,
  0x2416,
  0xf6fc,
  0xd877,
  0xf5a1,
  0xf5a4,
  0xdd8c,
  0xfea1,
  0xfd14,
  0xf7d3,
  0x0432,
  0x0794,
  0x045f,
  0x078c,
  0x0445,
  0x1aa0,
  0xfd96,
  0x0949,
  0x0fe0,
  0x0c72,
  0xfd42,
  0xfeed,
  0x0ef7,
  0xf95f,
  0x08d9,
  0xecea,
  0x1122,
  0x0dca,
  0x0735,
  0xed61,
  0xe176,
  0xf530,
  0xeb8d,
  0xf227,
  0xfa40,
  0xed2f,
  0xf77d,
  0xf37e,
  0xb6b7,
  0xb821,
  0xc07a,
  0xb02f,
  0xbcdb,
  0xc181,
  0xeadf,
  0xe394,
  0xfc5a,
  0xf1dd,
  0xfb86,
  0xea50,
  0xf3f6,
  0xf1cb,
  0xf8ae,
  0xe658,
  0xea8b,
  0xf377,
  0x2143,
  0x1712,
  0x0e89,
  0xfc7c,
  0x1259,
  0x183e,
  0x089d,
  0x0805,
  0xfd1b,
  0xfef4,
  0xf824,
  0xf573,
  0x0bd3,
  0x0e90,
  0x1145,
  0x0790,
  0x0701,
  0x0f1e,
  0xfd66,
  0xe28e,
  0xea36,
  0xfcf0,
  0x0cba,
  0x0657,
  0x0f03,
  0x0e84,
  0x05db,
  0x072e,
  0x14c1,
  0x0050,
  0xefed,
  0x0bb2,
  0x0e87,
  0xf118,
  0x087a,
  0x1052,
  0xfbe9,
  0xf3ef,
  0xe56d,
  0x00ab,
  0xfd67,
  0xf364,
  0x0f5c,
  0x1d37,
  0x0d5c,
  0x058e,
  0x0242,
  0x03d7,
  0xee88,
  0xf5f1,
  0xf302,
  0xeb7b,
  0xee63,
  0xe601,
  0xe92d,
  0x027a,
  0xffcc,
  0x03fe,
  0x1bc1,
  0x09bb,
  0x14e1,
  0x1c24,
  0x1045,
  0xff8a,
  0xf329,
  0xfb79,
  0xe045,
  0xed41,
  0xf538,
  0x13c2,
  0x0437,
  0x1cf3,
  0x0cbc,
  0x10b2,
  0x11a0,
  0x0ba5,
  0x0faf,
  0x0d58,
  0x1763,
  0x15ba,
  0x1c60,
  0xfa1f,
  0xe950,
  0xf6db,
  0x164e,
  0x091a,
  0xf592,
  0xfdc6,
  0x01e1,
  0x0ea6,
  0xf15f,
  0xf095,
  0xd751,
  0xd432,
  0xeb3a,
  0xecc1,
  0x0013,
  0xfc13,
  0x04d0,
  0xfc2f,
  0x020a,
  0xee49,
  0x0bb6,
  0x1ece,
  0x0288,
  0x2442,
  0x06d4,
  0x19e7,
  0xf725,
  0xd47f,
  0xf907,
  0xfc31,
  0x088b,
  0xf872,
  0x071d,
  0x08d2,
  0x06a6,
  0xf7d6,
  0x00fa,
  0xf4ee,
  0xf7dd,
  0x1782,
  0x020b,
  0x1a7a,
  0x2d37,
  0x02c1,
  0xf7e3,
  0xf39e,
  0xea8c,
  0xfa98,
  0x14ac,
  0xfbf7,
  0x02c3,
  0x205c,
  0x0890,
  0xfab9,
  0xdef9,
  0x152b,
  0x06d8,
  0x0852,
  0xfa33,
  0xeae4,
  0xfab9,
  0x0447,
  0x0277,
  0x06c5,
  0xf99e,
  0xf004,
  0x0dfe,
  0x02f0,
  0x1001,
  0x12f4,
  0x04b2,
  0x051a,
  0x164f,
  0x0b02,
  0xfee6,
  0xf5ea,
  0xf57d,
  0xf7a2,
  0xf494,
  0x131a,
  0xebb5,
  0xef81,
  0x0535,
  0xf89d,
  0xe754,
  0xe4f9,
  0xfc22,
  0xf573,
  0x035a,
  0x0f32,
  0xfb14,
  0xfef9,
  0x0a9b,
  0xff00,
  0x028d,
  0x186a,
  0x1110,
  0x0495,
  0xfd43,
  0x0b23,
  0x04e4,
  0x1375,
  0xfc61,
  0xf9d9,
  0xf306,
  0xf444,
  0xef7f,
  0x043c,
  0x155c,
  0x161b,
  0xfe01,
  0x0e43,
  0x0e00,
  0xf8e2,
  0xf115,
  0x0742,
  0x0a24,
  0xfef7,
  0x08bb,
  0xed63,
  0xecef,
  0xe8fc,
  0x07ce,
  0x0b77,
  0xfaae,
  0xf9a4,
  0xf6cc,
  0xf8bb,
  0x0e4b,
  0x0fbc,
  0xfeb1,
  0xf9a9,
  0xeda1,
  0xe44c,
  0xf1e3,
  0xedf6,
  0xfa77,
  0x0df6,
  0xff6e,
  0xf424,
  0xfad5,
  0xd8c1,
  0xf264,
  0x0bbe,
  0x155a,
  0xfb59,
  0xfe40,
  0x0c66,
  0xe3a2,
  0xd619,
  0xf1fc,
  0xdc30,
  0x18c8,
  0x04c8,
  0xfe4a,
  0x1701,
  0xf94c,
  0xf782,
  0x030e,
  0xf21d,
  0xf42c,
  0xfa0d,
  0x0b3b,
  0x032c,
  0x0182,
  0x1099,
  0x012a,
  0xf096,
  0x044a,
  0xfc8d,
  0xfa58,
  0xfd7b,
  0x03fb,
  0xf5c7,
  0xe8d4,
  0xf217,
  0x0fc4,
  0x0660,
  0x07ce,
  0x02cb,
  0xe6b2,
  0xf18c,
  0xf822,
  0xc9e0,
  0xddd0,
  0xdc5e,
  0xe10f,
  0xdc8e,
  0x19ba,
  0x06cf,
  0x1092,
  0x02aa,
  0xef66,
  0x0394,
  0xc7ac,
  0xc322,
  0xdaf9,
  0x0b7e,
  0x0a81,
  0x03d6,
  0x0712,
  0xfdeb,
  0xf381,
  0xe3c8,
  0xed4c,
  0x0052,
  0xfe6f,
  0xfb33,
  0x120c,
  0x10ac,
  0x0f38,
  0x0fbf,
  0xfacd,
  0xe6f4,
  0xe742,
  0x06ff,
  0x12d5,
  0xfe5f,
  0x1423,
  0x0d92,
  0x07ca,
  0x0017,
  0xe615,
  0xefff,
  0x07a4,
  0x03da,
  0xff37,
  0x01ba,
  0xff84,
  0x0055,
  0xeeb2,
  0x0bd4,
  0x0b43,
  0xf8a7,
  0xe812,
  0xe429,
  0x15cd,
  0x0181,
  0xfb60,
  0xf8a1,
  0xf516,
  0xece8,
  0x0cd9,
  0x188a,
  0x1de8,
  0x0b09,
  0x0077,
  0xf94b,
  0xed48,
  0xf70d,
  0xfb40,
  0x13a1,
  0xf8f6,
  0xf864,
  0x09d4,
  0xf484,
  0xfb7e,
  0xf656,
  0xfa60,
  0x042d,
  0x054a,
  0x035b,
  0x1a36,
  0xfd3c,
  0xfe21,
  0xf31b,
  0xfe1f,
  0x0ebb,
  0x0dd3,
  0x16d5,
  0x0dc8,
  0x0974,
  0xfaf5,
  0x02f8,
  0xfb5c,
  0xe29a,
  0xd234,
  0xefe8,
  0x0367,
  0x056f,
  0xfe80,
  0x02d8,
  0xffb2,
  0xfde4,
  0x0bdb,
  0x034c,
  0x013e,
  0xfa4e,
  0xfceb,
  0xf9ba,
  0xfaa3,
  0xed0e,
  0x0119,
  0x119d,
  0xe618,
  0xe6cc,
  0xfb29,
  0x07b4,
  0xfa80,
  0xfe96,
  0xf9b3,
  0xf874,
  0xf0fd,
  0xe68b,
  0xf543,
  0xefdd,
  0x0747,
  0x1bac,
  0x05dd,
  0x0365,
  0xf890,
  0xef2a,
  0xf2d0,
  0x007d,
  0x0cd4,
  0xfe3c,
  0xff7e,
  0x0fa4,
  0x033a,
  0xfc0e,
  0xe90c,
  0xcf68,
  0xede2,
  0xf7fc,
  0x0218,
  0x03a8,
  0x0740,
  0x01f2,
  0x0238,
  0xf670,
  0x14ef,
  0x0229,
  0xfd9d,
  0xfb6b,
  0xfc30,
  0x0883,
  0x13b9,
  0xedbe,
  0x1094,
  0xfecf,
  0xf6d3,
  0x0cba,
  0x03b8,
  0xf9c9,
  0x042f,
  0xef70,
  0xefb0,
  0xfd3c,
  0xe35a,
  0x0901,
  0x0d16,
  0xfa71,
  0xfb66,
  0x1083,
  0x06fa,
  0x0685,
  0xef13,
  0xeab3,
  0xe9f1,
  0xf801,
  0xf438,
  0xfeea,
  0x0045,
  0xec31,
  0xea15,
  0x1795,
  0x00f5,
  0xedd0,
  0xff6c,
  0x0337,
  0x0108,
  0xfb54,
  0x0361,
  0x0835,
  0xec22,
  0xdf75,
  0x0e22,
  0xedea,
  0x05fc,
  0x298c,
  0xed77,
  0x0fa7,
  0x0a0c,
  0xeba9,
  0xf48d,
  0x0373,
  0x028e,
  0x025a,
  0x10ae,
  0xfbc7,
  0xf955,
  0xfa46,
  0xf27a,
  0xf043,
  0xf59b,
  0x0aaa,
  0x0b07,
  0x0f91,
  0xdfc2,
  0x0407,
  0x1377,
  0xdf3b,
  0x0efc,
  0xf7a6,
  0xf289,
  0xdfcb,
  0xfa43,
  0xfbdb,
  0xf562,
  0x0442,
  0xee77,
  0xf5ec,
  0xe64a,
  0x07ef,
  0x0054,
  0xf827,
  0xffac,
  0xf996,
  0xebcc,
  0xe580,
  0xfeba,
  0xfa96,
  0xfac0,
  0xfb10,
  0x0df2,
  0xf542,
  0x011b,
  0x1140,
  0xf86f,
  0xd819,
  0x033b,
  0x00bb,
  0x1584,
  0x0df9,
  0xffb1,
  0x181c,
  0x09db,
  0x01dc,
  0xfd32,
  0xfbba,
  0x0a0a,
  0x05db,
  0xf9d4,
  0x07cb,
  0x03d2,
  0x1039,
  0xe260,
  0xfa10,
  0xf5f6,
  0x09a4,
  0x0fc7,
  0x04bc,
  0x0540,
  0x13e8,
  0x1006,
  0xf5fa,
  0x1a5a,
  0x0967,
  0xef05,
  0x0594,
  0xf200,
  0x0bb9,
  0xf6dd,
  0x0097,
  0xee9a,
  0x016e,
  0xf0d7,
  0x081b,
  0x0daa,
  0xfd68,
  0x0622,
  0x040d,
  0xf6cf,
  0x071b,
  0x0058,
  0xe96e,
  0xfc5a,
  0xe86e,
  0x1bc0,
  0xc845,
  0xc2fb,
  0xfc0b,
  0xea03,
  0xda82,
  0x1b43,
  0x0eba,
  0x02dd,
  0x1809,
  0xd6c0,
  0xcbef,
  0xff2b,
  0x0053,
  0xfb2a,
  0xe6d3,
  0xff2d,
  0x13d1,
  0x041d,
  0x0a26,
  0x0219,
  0x1204,
  0xf744,
  0x020f,
  0xfea8,
  0xfe99,
  0x050c,
  0x1252,
  0xfa13,
  0xee13,
  0x02a6,
  0xf073,
  0xfbe9,
  0x0672,
  0xf7a9,
  0x0cfe,
  0x214d,
  0xff4c,
  0x0014,
  0x0bdd,
  0xf9af,
  0xf739,
  0xfbeb,
  0xf62f,
  0xf5db,
  0xeb20,
  0x1094,
  0x04c3,
  0x0e66,
  0xebca,
  0x060b,
  0x0ae7,
  0xedcd,
  0xff24,
  0x270f,
  0xf4f8,
  0xfb8c,
  0x03b5,
  0xfce2,
  0xd25d,
  0xe8dc,
  0x07b4,
  0xff5b,
  0x0874,
  0xf1d0,
  0xecb0,
  0xf080,
  0x0c1d,
  0xf7c8,
  0x0bb1,
  0x092b,
  0x0b44,
  0x0ead,
  0x13c0,
  0x0d5b,
  0xf7da,
  0x028d,
  0xfcd1,
  0xfdc2,
  0x0a88,
  0x1376,
  0x199b,
  0xf9cf,
  0x00b3,
  0x0354,
  0xf09b,
  0xda88,
  0x2050,
  0xebe6,
  0xff81,
  0x1112,
  0xf6b4,
  0xfa59,
  0x146a,
  0xff20,
  0x09ac,
  0x1cca,
  0xf8b8,
  0xf532,
  0x034a,
  0xfa46,
  0xf285,
  0xf89e,
  0x0bca,
  0x1990,
  0x0b4c,
  0x0a81,
  0xfc40,
  0x0e36,
  0xfd4f,
  0xf2b4,
  0x068a,
  0x01e9,
  0xe68a,
  0xf02d,
  0xfb67,
  0x1b7c,
  0x2065,
  0x04a2,
  0x049d,
  0x15f2,
  0xf708,
  0xec26,
  0xfbcb,
  0x00fb,
  0x0570,
  0x17b7,
  0xf16d,
  0x05a5,
  0xf9b9,
  0xf025,
  0xf111,
  0xff3c,
  0xf51d,
  0x125e,
  0x1309,
  0xede8,
  0x024c,
  0x1125,
  0xe172,
  0x00a1,
  0x05c4,
  0x0e10,
  0x1653,
  0x14f8,
  0xe9ae,
  0xfc98,
  0x1894,
  0xece4,
  0xe601,
  0x168a,
  0x0a69,
  0x1515,
  0x073c,
  0xd8bf,
  0x0cce,
  0x16e6,
  0xd5f5,
  0x04d0,
  0x0da7,
  0x03fb,
  0x09cd,
  0x0b78,
  0xec13,
  0xf560,
  0x026a,
  0xe8ba,
  0xe818,
  0xfcf5,
  0xfd14,
  0x0f1a,
  0x11a1,
  0x08ec,
  0xfc5e,
  0xef9b,
  0x1c66,
  0x1836,
  0x232b,
  0x0893,
  0xed86,
  0xf0e3,
  0xf3df,
  0xe659,
  0xd5c3,
  0xfa69,
  0xe4cb,
  0xf373,
  0x1265,
  0xf47e,
  0xf1f5,
  0x06de,
  0xf8b7,
  0xe06c,
  0xf1f8,
  0xd853,
  0x108f,
  0x1d2e,
  0x2128,
  0xff19,
  0xf457,
  0x1eb0,
  0xeee7,
  0xfc31,
  0xf789,
  0xecd1,
  0xe379,
  0xf0eb,
  0xe775,
  0xfbfd,
  0x069a,
  0xe934,
  0x0547,
  0xeddd,
  0xfce9,
  0xf484,
  0xffac,
  0xf099,
  0xf228,
  0x0db7,
  0x1454,
  0xfebf,
  0x0299,
  0x1869,
  0x106a,
  0xf90d,
  0xefdd,
  0x101f,
  0x0d02,
  0xf7d3,
  0x0641,
  0x1109,
  0x1465,
  0x2d07,
  0x0b98,
  0xf392,
  0x0b2c,
  0x2854,
  0x133d,
  0xf16f,
  0xfa0e,
  0xe84d,
  0xd683,
  0xecf7,
  0xe949,
  0xcc3b,
  0xb87c,
  0xd34d,
  0xe06b,
  0xbeaa,
  0xdda0,
  0xe2eb,
  0xee55,
  0xfef6,
  0xf3ac,
  0x173e,
  0xd9b6,
  0xf395,
  0xfc67,
  0xdbdf,
  0x0960,
  0xfb8e,
  0xff3b,
  0xf357,
  0x05f1,
  0xf6ea,
  0xfa14,
  0xddea,
  0xf6f8,
  0xf70a,
  0x0409,
  0x0ad2,
  0xf8f5,
  0x1f1d,
  0xec22,
  0xe759,
  0xf9d8,
  0xf112,
  0xf5ef,
  0x0ab1,
  0x078c,
  0xbe2e,
  0xf498,
  0xfa28,
  0xbef5,
  0x0957,
  0xf033,
  0xebe3,
  0xdf37,
  0xf275,
  0x00af,
  0xf5ff,
  0x0f23,
  0xc730,
  0xc5bc,
  0xcaa8,
  0x0f4e,
  0xede7,
  0xf941,
  0xffe8,
  0x0f61,
  0x0c6f,
  0x1504,
  0xf3bf,
  0xe4b0,
  0x144d,
  0x0cc4,
  0xf425,
  0x1ed9,
  0xfc4b,
  0x00b0,
  0xfd1d,
  0xe23f,
  0xde20,
  0xf1b0,
  0x0d8d,
  0x0245,
  0x060e,
  0x0a4c,
  0xf872,
  0x144f,
  0x04f2,
  0x0acd,
  0x167e,
  0x1a5e,
  0xfb3e,
  0xec22,
  0x0112,
  0xfb38,
  0xfe06,
  0xfb8b,
  0xf74e,
  0x2100,
  0x016b,
  0xef0b,
  0x1145,
  0x0a07,
  0xf341,
  0xfa05,
  0xf8d6,
  0xf467,
  0x0df7,
  0x02a3,
  0x0ec6,
  0x0b74,
  0x0951,
  0xf4ef,
  0xf5ef,
  0xfa75,
  0x10eb,
  0xfd4f,
  0x066d,
  0x182b,
  0xfaac,
  0x00e6,
  0x19e8,
  0xfdc2,
  0x0475,
  0x0b79,
  0x01fc,
  0x027f,
  0xee86,
  0x03a1,
  0x026b,
  0xf805,
  0x0438,
  0xfd1d,
  0x0f33,
  0xe772,
  0xedde,
  0xdf32,
  0x18d9,
  0xff1e,
  0x1ebc,
  0xf251,
  0xe757,
  0xf150,
  0x17ea,
  0x1bc2,
  0x0cd7,
  0x0dd8,
  0x0d0e,
  0xf0b8,
  0xfe8e,
  0xf950,
  0x061b,
  0xfbbe,
  0xfa61,
  0x10db,
  0x09f6,
  0x036a,
  0xf413,
  0x0b79,
  0x19f6,
  0x1fa6,
  0x0603,
  0xe808,
  0xe99a,
  0x0b13,
  0x06c7,
  0x158c,
  0x191b,
  0x1cd8,
  0x05e2,
  0xfcea,
  0xf731,
  0xf1d2,
  0x172a,
  0x0a77,
  0xf50c,
  0xef79,
  0xf58a,
  0x091a,
  0xfd45,
  0xef15,
  0xe6f4,
  0xea46,
  0xf5ab,
  0xf513,
  0x111f,
  0xe022,
  0x02ba,
  0x07a1,
  0xf71e,
  0xe56f,
  0xe1b2,
  0xfaba,
  0xba0e,
  0xe97a,
  0xf7ef,
  0xe9da,
  0xfb24,
  0xfd3a,
  0xd8a0,
  0xfb7f,
  0x119a,
  0xf50e,
  0x054a,
  0xfccd,
  0xff9f,
  0x064a,
  0x0f4e,
  0xfdbb,
  0xd7e7,
  0xfe62,
  0xe8a7,
  0x14e6,
  0xf406,
  0xe9b9,
  0x01ea,
  0x0189,
  0xf932,
  0xede8,
  0xf6cb,
  0x052b,
  0xfaac,
  0xf658,
  0x05a4,
  0x1071,
  0xe878,
  0xf249,
  0x3f20,
  0xe6fd,
  0xf23e,
  0xfb3d,
  0x0763,
  0xeaa2,
  0x0c7c,
  0x1409,
  0x040b,
  0x00c1,
  0x1f48,
  0xfad1,
  0xf8a9,
  0xeb3c,
  0x0034,
  0x0400,
  0x0dba,
  0x14e0,
  0xfcdf,
  0x0efb,
  0x11dd,
  0xfcba,
  0x18b0,
  0x1a98,
  0xefdf,
  0x0567,
  0x1090,
  0xd6f3,
  0xf208,
  0x027a,
  0xe94c,
  0x015a,
  0x0521,
  0x07e1,
  0x102c,
  0x006a,
  0x1d22,
  0x0bf8,
  0xe57f,
  0xfa07,
  0x07fd,
  0xff6e,
  0x076a,
  0xef74,
  0x031a,
  0xe800,
  0xddd1,
  0xfd0a,
  0xfe57,
  0xdbd8,
  0xe89b,
  0xff84,
  0xd5a1,
  0xedae,
  0x089d,
  0xdab3,
  0x0456,
  0xf73d,
  0x072d,
  0xfb71,
  0x1b6c,
  0x1adb,
  0x03f7,
  0x18b5,
  0x0219,
  0xf4fe,
  0xf210,
  0xe888,
  0xf7eb,
  0xef1f,
  0xea74,
  0x0905,
  0xedba,
  0xd6e0,
  0xea67,
  0x06e7,
  0xf8b0,
  0xfb9c,
  0xdb10,
  0x0a22,
  0x1888,
  0xefda,
  0x0b95,
  0x1cc0,
  0x0675,
  0x2353,
  0x1228,
  0xffe6,
  0xde98,
  0x00b0,
  0xe1f3,
  0xa7cf,
  0xf15f,
  0xeede,
  0xf2cd,
  0xfc6e,
  0x0c93,
  0xfe63,
  0xef30,
  0xedc6,
  0xeab3,
  0xedd1,
  0xec00,
  0x0eb2,
  0xf60f,
  0xe1bb,
  0x11c6,
  0x0046,
  0xc8c3,
  0x1386,
  0xf8c3,
  0x0184,
  0x0e59,
  0xe30a,
  0x40d8,
  0x57dd,
  0x3900,
  0x1f34,
  0x4c0a,
  0x6414,
  0x1c14,
  0x40fe,
  0x2c29,
  0x0047,
  0x19d6,
  0xfd07,
  0x0b0d,
  0x08be,
  0xfeb7,
  0xfcb1,
  0xf095,
  0xfbe9,
  0xfc18,
  0xe4f1,
  0xefea,
  0x086f,
  0x0c3c,
  0x0e82,
  0xf9e1,
  0xe452,
  0xfeb0,
  0xea92,
  0xdc1e,
  0xdecf,
  0x1822,
  0x022b,
  0xfe4d,
  0x10b5,
  0x2523,
  0x1cc2,
  0x04df,
  0xf63b,
  0x137e,
  0xd8d3,
  0xe41f,
  0xfc7e,
  0xe7a6,
  0x0b2d,
  0x1418,
  0x0822,
  0xeecb,
  0xe703,
  0x1539,
  0xe5b3,
  0xdcf8,
  0xff84,
  0xefae,
  0xd804,
  0x03a9,
  0xff21,
  0x0b54,
  0xf862,
  0xdb65,
  0x03c6,
  0x1073,
  0x3134,
  0x0246,
  0xd0a3,
  0x243c,
  0x106e,
  0xe4af,
  0x2b45,
  0x14fe,
  0xea97,
  0x0e9e,
  0xeae9,
  0xfe2a,
  0xf178,
  0xef92,
  0xee0b,
  0xdb8e,
  0x0308,
  0xf1aa,
  0xf539,
  0xe76f,
  0x0b08,
  0x0e43,
  0xf255,
  0x09ed,
  0x0514,
  0x095a,
  0x02b1,
  0x12df,
  0x1294,
  0x0190,
  0xcf68,
  0x0738,
  0xf9fb,
  0xe012,
